{
  "version": "1.0",
  "truncation": null,
  "padding": null,
  "added_tokens": [
    {
      "id": 0,
      "content": "<|endoftext|>",
      "single_word": false,
      "lstrip": false,
      "rstrip": false,
      "normalized": false,
      "special": true
    },
    {
      "id": 1,
      "content": "<|im_start|>",
      "single_word": false,
      "lstrip": false,
      "rstrip": false,
      "normalized": false,
      "special": true
    },
    {
      "id": 2,
      "content": "<|im_end|>",
      "single_word": false,
      "lstrip": false,
      "rstrip": false,
      "normalized": false,
      "special": true
    }
  ],
  "normalizer": null,
  "pre_tokenizer": {
    "type": "ByteLevel",
    "add_prefix_space": false,
    "trim_offsets": true,
    "use_regex": true
  },
  "post_processor": null,
  "decoder": {
    "type": "ByteLevel",
    "add_prefix_space": true,
    "trim_offsets": true,
    "use_regex": true
  },
  "model": {
    "type": "BPE",
    "dropout": null,
    "unk_token": null,
    "continuing_subword_prefix": null,
    "end_of_word_suffix": null,
    "fuse_unk": false,
    "byte_fallback": false,
    "ignore_merges": false,
    "vocab": {
      "<|endoftext|>": 0,
      "<|im_start|>": 1,
      "<|im_end|>": 2,
      "!": 3,
      "\"": 4,
      "#": 5,
      "$": 6,
      "%": 7,
      "&": 8,
      "'": 9,
      "(": 10,
      ")": 11,
      "*": 12,
      "+": 13,
      ",": 14,
      "-": 15,
      ".": 16,
      "/": 17,
      "0": 18,
      "1": 19,
      "2": 20,
      "3": 21,
      "4": 22,
      "5": 23,
      "6": 24,
      "7": 25,
      "8": 26,
      "9": 27,
      ":": 28,
      ";": 29,
      "<": 30,
      "=": 31,
      ">": 32,
      "?": 33,
      "@": 34,
      "A": 35,
      "B": 36,
      "C": 37,
      "D": 38,
      "E": 39,
      "F": 40,
      "G": 41,
      "H": 42,
      "I": 43,
      "J": 44,
      "K": 45,
      "L": 46,
      "M": 47,
      "N": 48,
      "O": 49,
      "P": 50,
      "Q": 51,
      "R": 52,
      "S": 53,
      "T": 54,
      "U": 55,
      "V": 56,
      "W": 57,
      "X": 58,
      "Y": 59,
      "Z": 60,
      "[": 61,
      "\\": 62,
      "]": 63,
      "^": 64,
      "_": 65,
      "`": 66,
      "a": 67,
      "b": 68,
      "c": 69,
      "d": 70,
      "e": 71,
      "f": 72,
      "g": 73,
      "h": 74,
      "i": 75,
      "j": 76,
      "k": 77,
      "l": 78,
      "m": 79,
      "n": 80,
      "o": 81,
      "p": 82,
      "q": 83,
      "r": 84,
      "s": 85,
      "t": 86,
      "u": 87,
      "v": 88,
      "w": 89,
      "x": 90,
      "y": 91,
      "z": 92,
      "{": 93,
      "|": 94,
      "}": 95,
      "~": 96,
      "¡": 97,
      "¢": 98,
      "£": 99,
      "¤": 100,
      "¥": 101,
      "¦": 102,
      "§": 103,
      "¨": 104,
      "©": 105,
      "ª": 106,
      "«": 107,
      "¬": 108,
      "®": 109,
      "¯": 110,
      "°": 111,
      "±": 112,
      "²": 113,
      "³": 114,
      "´": 115,
      "µ": 116,
      "¶": 117,
      "·": 118,
      "¸": 119,
      "¹": 120,
      "º": 121,
      "»": 122,
      "¼": 123,
      "½": 124,
      "¾": 125,
      "¿": 126,
      "À": 127,
      "Á": 128,
      "Â": 129,
      "Ã": 130,
      "Ä": 131,
      "Å": 132,
      "Æ": 133,
      "Ç": 134,
      "È": 135,
      "É": 136,
      "Ê": 137,
      "Ë": 138,
      "Ì": 139,
      "Í": 140,
      "Î": 141,
      "Ï": 142,
      "Ð": 143,
      "Ñ": 144,
      "Ò": 145,
      "Ó": 146,
      "Ô": 147,
      "Õ": 148,
      "Ö": 149,
      "×": 150,
      "Ø": 151,
      "Ù": 152,
      "Ú": 153,
      "Û": 154,
      "Ü": 155,
      "Ý": 156,
      "Þ": 157,
      "ß": 158,
      "à": 159,
      "á": 160,
      "â": 161,
      "ã": 162,
      "ä": 163,
      "å": 164,
      "æ": 165,
      "ç": 166,
      "è": 167,
      "é": 168,
      "ê": 169,
      "ë": 170,
      "ì": 171,
      "í": 172,
      "î": 173,
      "ï": 174,
      "ð": 175,
      "ñ": 176,
      "ò": 177,
      "ó": 178,
      "ô": 179,
      "õ": 180,
      "ö": 181,
      "÷": 182,
      "ø": 183,
      "ù": 184,
      "ú": 185,
      "û": 186,
      "ü": 187,
      "ý": 188,
      "þ": 189,
      "ÿ": 190,
      "Ā": 191,
      "ā": 192,
      "Ă": 193,
      "ă": 194,
      "Ą": 195,
      "ą": 196,
      "Ć": 197,
      "ć": 198,
      "Ĉ": 199,
      "ĉ": 200,
      "Ċ": 201,
      "ċ": 202,
      "Č": 203,
      "č": 204,
      "Ď": 205,
      "ď": 206,
      "Đ": 207,
      "đ": 208,
      "Ē": 209,
      "ē": 210,
      "Ĕ": 211,
      "ĕ": 212,
      "Ė": 213,
      "ė": 214,
      "Ę": 215,
      "ę": 216,
      "Ě": 217,
      "ě": 218,
      "Ĝ": 219,
      "ĝ": 220,
      "Ğ": 221,
      "ğ": 222,
      "Ġ": 223,
      "ġ": 224,
      "Ģ": 225,
      "ģ": 226,
      "Ĥ": 227,
      "ĥ": 228,
      "Ħ": 229,
      "ħ": 230,
      "Ĩ": 231,
      "ĩ": 232,
      "Ī": 233,
      "ī": 234,
      "Ĭ": 235,
      "ĭ": 236,
      "Į": 237,
      "į": 238,
      "İ": 239,
      "ı": 240,
      "Ĳ": 241,
      "ĳ": 242,
      "Ĵ": 243,
      "ĵ": 244,
      "Ķ": 245,
      "ķ": 246,
      "ĸ": 247,
      "Ĺ": 248,
      "ĺ": 249,
      "Ļ": 250,
      "ļ": 251,
      "Ľ": 252,
      "ľ": 253,
      "Ŀ": 254,
      "ŀ": 255,
      "Ł": 256,
      "ł": 257,
      "Ń": 258,
      "ä¸": 259,
      "ï¼": 260,
      "ãĢ": 261,
      "çļ": 262,
      "çļĦ": 263,
      "ï¼Į": 264,
      "ãĢĤ": 265,
      "im": 266,
      "<|": 267,
      "|>": 268,
      "äº": 269,
      "ä»": 270,
      "åı": 271,
      "æľ": 272,
      "è¯": 273,
      "æĪ": 274,
      "è¿": 275,
      "æĸ": 276,
      "åħ": 277,
      "å¤": 278,
      "ä¸Ģ": 279,
      "ä½": 280,
      "æĺ": 281,
      "ar": 282,
      "en": 283,
      "st": 284,
      "art": 285,
      "end": 286,
      "start": 287,
      "å®": 288,
      "çĶ": 289,
      "åĲ": 290,
      "Ġ<|": 291,
      "åľ": 292,
      "åĪ": 293,
      "ãĢĤ<|": 294,
      "ä¹": 295,
      "ç»": 296,
      "åŃ": 297,
      "æĪĳ": 298,
      "ä¸ª": 299,
      "æĺ¯": 300,
      "åĬ": 301,
      "åĴ": 302,
      "å°": 303,
      "ï¼ļ": 304,
      "æĸĩ": 305,
      "åĴĮ": 306,
      "ãĢģ": 307,
      "ä»¥": 308,
      "æľī": 309,
      "åľ¨": 310,
      "æĹ": 311,
      "è®": 312,
      "ä¸Ń": 313,
      "è¿Ļ": 314,
      "åĽ": 315,
      "äºº": 316,
      "åĩ": 317,
      "åĨ": 318,
      "äºĨ": 319,
      "ĥ½": 320,
      "å¸": 321,
      "éĩ": 322,
      "é¢": 323,
      "åº": 324,
      "å¹": 325,
      "æı": 326,
      "æĿ": 327,
      "å¥": 328,
      "è¡": 329,
      "ä¸º": 330,
      "å¾": 331,
      "éĹ": 332,
      "ä¸ĭ": 333,
      "åı¯": 334,
      "ä¼": 335,
      "è¦": 336,
      "è¦ģ": 337,
      "åį": 338,
      "æł": 339,
      "å·": 340,
      "åŃĲ": 341,
      "èĥ½": 342,
      "éĢ": 343,
      "åı¥": 344,
      "åĮ": 345,
      "å½": 346,
      "âĢ": 347,
      "æī": 348,
      "çİ": 349,
      "ä¸į": 350,
      "æıĲ": 351,
      "ä¸Ģä¸ª": 352,
      "æŃ": 353,
      "æĢ": 354,
      "çī": 355,
      "å¯": 356,
      "æĬ": 357,
      "éĿ": 358,
      "ç§": 359,
      "ç«": 360,
      "è§": 361,
      "æĪĲ": 362,
      "åİ": 363,
      "çĶŁ": 364,
      "æ°": 365,
      "æķ": 366,
      "çŃ": 367,
      "ä¿": 368,
      "åĩº": 369,
      "æĥ": 370,
      "å¼": 371,
      "æŀ": 372,
      "å¤©": 373,
      "æľ¬": 374,
      "æĦ": 375,
      "æĽ": 376,
      "æĻ": 377,
      "æ³": 378,
      "çĽ": 379,
      "çĶ¨": 380,
      "ï¼Ł": 381,
      "ä»¬": 382,
      "é¢ĺ": 383,
      "èĢ": 384,
      "åı¯ä»¥": 385,
      "åĵ": 386,
      "åĳ": 387,
      "ç»Ļ": 388,
      "ä½ł": 389,
      "ä»ĸ": 390,
      "åı¥åŃĲ": 391,
      "å¥½": 392,
      "è¡Į": 393,
      "ä¾": 394,
      "æĶ": 395,
      "æĭ": 396,
      "ä¸Ĭ": 397,
      "æĿ¥": 398,
      "ç«ł": 399,
      "å¿": 400,
      "æĸĩç«ł": 401,
      "æµ": 402,
      "¦Ĥ": 403,
      "èĩ": 404,
      "æİ": 405,
      "çĲ": 406,
      "å®ļ": 407,
      "åħ³": 408,
      "åĪ°": 409,
      "æį": 410,
      "äºİ": 411,
      "æĤ": 412,
      "æĽ´": 413,
      "è¾": 414,
      "è¯·": 415,
      "ç®": 416,
      "è¯Ń": 417,
      "åħ¶": 418,
      "é£": 419,
      "åŃ¦": 420,
      "æĸĩæľ¬": 421,
      "æ¬": 422,
      "æĹ¶": 423,
      "èµ": 424,
      "åľ°": 425,
      "çº": 426,
      "è¯į": 427,
      "å¦Ĥ": 428,
      "éĹ®": 429,
      "æ¯": 430,
      "å±": 431,
      "æ¸": 432,
      "å¤§": 433,
      "éĶ": 434,
      "æľĢ": 435,
      "æĸ°": 436,
      "æ´": 437,
      "å¤ļ": 438,
      "æ²": 439,
      "å¯¹": 440,
      "å°Ĩ": 441,
      "åĨĻ": 442,
      "è´": 443,
      "ä¼ļ": 444,
      "çľ": 445,
      "æĤ¨": 446,
      "âĢĿ": 447,
      "äºĽ": 448,
      "å·¥": 449,
      "çĤ": 450,
      "åĬ¨": 451,
      "æĮ": 452,
      "éĿ¢": 453,
      "åĸ": 454,
      "åıĸ": 455,
      "æ³ķ": 456,
      "æį®": 457,
      "å¹¶": 458,
      "æĸ¹": 459,
      "ä»¥ä¸ĭ": 460,
      "éľ": 461,
      "æ°Ķ": 462,
      "ä½¿": 463,
      "ä¹Ī": 464,
      "çŃī": 465,
      "ä½ľ": 466,
      "ç±": 467,
      "èĩª": 468,
      "çī©": 469,
      "éĩį": 470,
      "å¾Ī": 471,
      "å°ı": 472,
      "æ±": 473,
      "åģ": 474,
      "çŁ": 475,
      "å½±": 476,
      "çĦ": 477,
      "è¿Ľ": 478,
      "çĶµ": 479,
      "æĺİ": 480,
      "éĻ": 481,
      "ä½ĵ": 482,
      "åĪĨ": 483,
      "âĢľ": 484,
      "åıĳ": 485,
      "åŁ": 486,
      "æŀľ": 487,
      "ä¸»": 488,
      "åĬł": 489,
      "æĥħ": 490,
      "éĺ": 491,
      "çİ°": 492,
      "éģ": 493,
      "å¸¸": 494,
      "åĲį": 495,
      "å®ĥ": 496,
      "ç¯": 497,
      "æģ": 498,
      "å®¶": 499,
      "ç±»": 500,
      "èī": 501,
      "è½": 502,
      "çĦ¶": 503,
      "éľĢ": 504,
      "ä¾Ľ": 505,
      "æĪĸ": 506,
      "è¶": 507,
      "ä¿Ŀ": 508,
      "åİ»": 509,
      "åĽ½": 510,
      "ç¾": 511,
      "é«": 512,
      "æĦŁ": 513,
      "çĤ¹": 514,
      "ç¯ĩ": 515,
      "é«ĺ": 516,
      "æıĲä¾Ľ": 517,
      "éĹ®é¢ĺ": 518,
      "è¿ĩ": 519,
      "è°": 520,
      "åºĶ": 521,
      "æĪĳä»¬": 522,
      "æĻº": 523,
      "æĦı": 524,
      "æł¹": 525,
      "åī": 526,
      "åĲĮ": 527,
      "ä»İ": 528,
      "èĬ": 529,
      "åĬĽ": 530,
      "çĲĨ": 531,
      "åĸľ": 532,
      "æľº": 533,
      "ä»Ģ": 534,
      "ç»Ļå®ļ": 535,
      "åĽł": 536,
      "æķ°": 537,
      "è¿Ļä¸ª": 538,
      "æĻºèĥ½": 539,
      "æł¹æį®": 540,
      "æīĢ": 541,
      "ä»Ģä¹Ī": 542,
      "éľĢè¦ģ": 543,
      "å¾Ĺ": 544,
      "åħ¬": 545,
      "æ¬¢": 546,
      "ä¹ĭ": 547,
      "ç§į": 548,
      "ç¾İ": 549,
      "ä½Ĩ": 550,
      "ç©": 551,
      "è¯Ŀ": 552,
      "æŃ£": 553,
      "éĤ": 554,
      "ä¿¡": 555,
      "æ®": 556,
      "æĥ³": 557,
      "æŁ": 558,
      "æĢ§": 559,
      "å¹´": 560,
      "ç¼": 561,
      "å»": 562,
      "åĵģ": 563,
      "éĩĮ": 564,
      "åĮĸ": 565,
      "æĬĢ": 566,
      "å®ŀ": 567,
      "è§£": 568,
      "é¦": 569,
      "è¿Ľè¡Į": 570,
      "çĽ¸": 571,
      "çľĭ": 572,
      "çĸ": 573,
      "çĶŁæĪĲ": 574,
      "åº¦": 575,
      "æıĲåıĸ": 576,
      "ç»ı": 577,
      "ç®Ģ": 578,
      "ç¬": 579,
      "å¢": 580,
      "éĹ´": 581,
      "å¿ĥ": 582,
      "éĽ": 583,
      "è¿°": 584,
      "è¡¨": 585,
      "é¡": 586,
      "èī²": 587,
      "ä¸ŃçļĦ": 588,
      "éĿŀ": 589,
      "æ¡": 590,
      "æģ¯": 591,
      "çŃĶ": 592,
      "ç³": 593,
      "å½ĵ": 594,
      "çĶµå½±": 595,
      "åĸľæ¬¢": 596,
      "åįķ": 597,
      "èĲ": 598,
      "çİ¯": 599,
      "æ®µ": 600,
      "æĹł": 601,
      "åĢ": 602,
      "äºĭ": 603,
      "çķ": 604,
      "å»º": 605,
      "åĮħ": 606,
      "ä¹Ł": 607,
      "æłĩ": 608,
      "çĿ": 609,
      "èĭ": 610,
      "ä¹ł": 611,
      "è¯¥": 612,
      "èĤ": 613,
      "åŃĹ": 614,
      "èį": 615,
      "å¸Ĥ": 616,
      "èģ": 617,
      "åĲİ": 618,
      "äººå·¥": 619,
      "æĶ¹": 620,
      "çĲĥ": 621,
      "ç¨": 622,
      "éķ": 623,
      "æ¯Ķ": 624,
      "éĢļ": 625,
      "å¥½çļĦ": 626,
      "èĢħ": 627,
      "äººå·¥æĻºèĥ½": 628,
      "æ°´": 629,
      "ä¸ĢäºĽ": 630,
      "æĹ¥": 631,
      "åĲĪ": 632,
      "ç¤": 633,
      "é£Ł": 634,
      "éĥ": 635,
      "åŀ": 636,
      "ç½": 637,
      "åĽŀ": 638,
      "é£İ": 639,
      "éĥ½": 640,
      "è·": 641,
      "ç¯ĩæĸĩç«ł": 642,
      "ç¡": 643,
      "éĿŀå¸¸": 644,
      "è¨": 645,
      "å¸®": 646,
      "ä¿¡æģ¯": 647,
      "çĭ": 648,
      "è¿ĺ": 649,
      "æ·": 650,
      "åħ¥": 651,
      "éĤ£": 652,
      "ä¸İ": 653,
      "è¯Ĺ": 654,
      "åīį": 655,
      "è¯´": 656,
      "æ²¡": 657,
      "å¼Ģ": 658,
      "éģĵ": 659,
      "éĶĻ": 660,
      "èĢĮ": 661,
      "éļ": 662,
      "ä¸ļ": 663,
      "æ´»": 664,
      "åħ·": 665,
      "è¨Ģ": 666,
      "çĥ": 667,
      "çĪ": 668,
      "ç´": 669,
      "éķ¿": 670,
      "è®¡": 671,
      "ä¸¤": 672,
      "æľ¯": 673,
      "å¤©æ°Ķ": 674,
      "æĭ¬": 675,
      "è®®": 676,
      "å¤Ħ": 677,
      "èµ·": 678,
      "åħ¨": 679,
      "ä¹ī": 680,
      "æĺ¯ä¸Ģ": 681,
      "æµ·": 682,
      "æĳ": 683,
      "åĨħ": 684,
      "åıĺ": 685,
      "ãĢĭ": 686,
      "ãĢĬ": 687,
      "ç»ĵ": 688,
      "ä½ķ": 689,
      "ç¡®": 690,
      "èĻ": 691,
      "å¼ı": 692,
      "ä¸ī": 693,
      "éĥ¨": 694,
      "åŃ¦ä¹ł": 695,
      "éĩı": 696,
      "æ¡Ī": 697,
      "çĻ": 698,
      "åĿ": 699,
      "æİ¨": 700,
      "ä»Ĭ": 701,
      "çī¹": 702,
      "è¿Ļç¯ĩæĸĩç«ł": 703,
      "ãĢĤâĢĿ": 704,
      "å®¹": 705,
      "åĲĹ": 706,
      "å°ĳ": 707,
      "ç§ĳ": 708,
      "åĪ«": 709,
      "æ²¡æľī": 710,
      "è¢": 711,
      "åķ": 712,
      "çĽ®": 713,
      "è®©": 714,
      "ç¨ĭ": 715,
      "ä½¿çĶ¨": 716,
      "åĬ©": 717,
      "å±ķ": 718,
      "åģ¥": 719,
      "éŁ": 720,
      "çĿĢ": 721,
      "ç»Ļå®ļçļĦ": 722,
      "æ¸¸": 723,
      "é¥": 724,
      "éĢī": 725,
      "åŀĭ": 726,
      "æŃ¤": 727,
      "çł": 728,
      "çŁ¥": 729,
      "ä»£": 730,
      "å§": 731,
      "æĢĿ": 732,
      "éĶ®": 733,
      "æ¶": 734,
      "æĮģ": 735,
      "çĹ": 736,
      "æ»": 737,
      "æĢ»": 738,
      "æıı": 739,
      "ç³»": 740,
      "åħ³éĶ®": 741,
      "éĢĤ": 742,
      "å¤ĸ": 743,
      "èº": 744,
      "æ¼": 745,
      "åĬ¡": 746,
      "åıĬ": 747,
      "ä¹Ĳ": 748,
      "åĳĬ": 749,
      "ä¹¦": 750,
      "ç¼ĸ": 751,
      "è¿ĳ": 752,
      "åĮ»": 753,
      "æľª": 754,
      "ä»»": 755,
      "ç¥": 756,
      "åľº": 757,
      "æ±Ĥ": 758,
      "åĵª": 759,
      "å¢ĥ": 760,
      "çģ": 761,
      "å¤ª": 762,
      "ç¿": 763,
      "åħ³äºİ": 764,
      "åı¸": 765,
      "åİŁ": 766,
      "èº«": 767,
      "äº§": 768,
      "é¢Ĩ": 769,
      "æīĭ": 770,
      "ä»¥ä¸ĭåı¥åŃĲ": 771,
      "æ¨": 772,
      "å¥¹": 773,
      "åįķè¯į": 774,
      "èĪ": 775,
      "ä½į": 776,
      "æĬĢæľ¯": 777,
      "è®º": 778,
      "ä»¶": 779,
      "å£": 780,
      "åŁİ": 781,
      "çŁŃ": 782,
      "åı¥è¯Ŀ": 783,
      "æııè¿°": 784,
      "æĽ´åĬł": 785,
      "åĮħæĭ¬": 786,
      "åĽłä¸º": 787,
      "åºĶçĶ¨": 788,
      "é©": 789,
      "ä½¿åħ¶": 790,
      "åıª": 791,
      "é»": 792,
      "éħ": 793,
      "åĻ": 794,
      "å±±": 795,
      "æµģ": 796,
      "åĪ¶": 797,
      "å»ºè®®": 798,
      "å¦Ĥæŀľ": 799,
      "é¤": 800,
      "è¯ķ": 801,
      "æ¯ı": 802,
      "ï¼ģ": 803,
      "èİ": 804,
      "é¤Ĳ": 805,
      "ç®Ĺ": 806,
      "ä¸ĸ": 807,
      "åıĹ": 808,
      "ä»ĸä»¬": 809,
      "æĸŃ": 810,
      "åĻ¨": 811,
      "æĺŁ": 812,
      "æĻ¯": 813,
      "çĮ": 814,
      "åº·": 815,
      "è¢«": 816,
      "åĪĽ": 817,
      "åħ¬åı¸": 818,
      "èĬĤ": 819,
      "åĲ«": 820,
      "æī¾": 821,
      "åĪĹ": 822,
      "æł¼": 823,
      "çĪ±": 824,
      "åı¤": 825,
      "èĬ±": 826,
      "åŁŁ": 827,
      "èĲ½": 828,
      "äº¤": 829,
      "æ¸ħ": 830,
      "æº": 831,
      "æĶ¾": 832,
      "æłĩé¢ĺ": 833,
      "é¢Ħ": 834,
      "è§Ĥ": 835,
      "è¾¾": 836,
      "ä¸ŃæıĲåıĸ": 837,
      "åĪ©": 838,
      "éŁ³": 839,
      "æŃ¥": 840,
      "ç©º": 841,
      "é¦ĸ": 842,
      "å·²": 843,
      "æľŁ": 844,
      "åģ¥åº·": 845,
      "æĮĩ": 846,
      "ä¸»è¦ģ": 847,
      "å°±": 848,
      "å°½": 849,
      "èı": 850,
      "åĩı": 851,
      "è½¦": 852,
      "æŃĮ": 853,
      "è¯Ńè¨Ģ": 854,
      "æ¨¡": 855,
      "åģļ": 856,
      "åı¯èĥ½": 857,
      "çĶ±": 858,
      "è¯Ĩ": 859,
      "åĲĥ": 860,
      "åĨ³": 861,
      "ä¸Ģä¸ĭ": 862,
      "æĹħ": 863,
      "å¹³": 864,
      "æĬ¥": 865,
      "æĹ¶éĹ´": 866,
      "æľĪ": 867,
      "ä»Ĭå¤©": 868,
      "è¾ĵ": 869,
      "æŀģ": 870,
      "è¯¯": 871,
      "èĥ": 872,
      "æĳĺ": 873,
      "ä¸»é¢ĺ": 874,
      "çİ¯å¢ĥ": 875,
      "é¸": 876,
      "å½¢": 877,
      "é¢ĨåŁŁ": 878,
      "èĦ": 879,
      "å·±": 880,
      "éĩįè¦ģ": 881,
      "åĵį": 882,
      "åĽŀçŃĶ": 883,
      "éª": 884,
      "çĸĹ": 885,
      "çļĦåı¥åŃĲ": 886,
      "åıĳå±ķ": 887,
      "å¸®åĬ©": 888,
      "ç»ĻæĪĳ": 889,
      "ä¸¤ä¸ª": 890,
      "æ¸©": 891,
      "é¡¹": 892,
      "çķĮ": 893,
      "Â·": 894,
      "èĩªå·±": 895,
      "æ·±": 896,
      "åħī": 897,
      "æł·": 898,
      "ç®¡": 899,
      "ç»Ħ": 900,
      "éĺ³": 901,
      "éĴ": 902,
      "ä¾ĭ": 903,
      "ä¸ĭéĿ¢": 904,
      "ç»Ń": 905,
      "æļ": 906,
      "ç¦": 907,
      "è±": 908,
      "çŃĶæ¡Ī": 909,
      "ç»Ļåĩº": 910,
      "éĶĻè¯¯": 911,
      "è¯ī": 912,
      "äººç±»": 913,
      "ï¼Ł<|": 914,
      "åİĨ": 915,
      "å·¥ä½ľ": 916,
      "çº¢": 917,
      "æķ°æį®": 918,
      "è¯»": 919,
      "æĺ¯ä»Ģä¹Ī": 920,
      "æľį": 921,
      "åı£": 922,
      "çĶŁæĪĲä¸Ģä¸ª": 923,
      "çİ¯ä¿Ŀ": 924,
      "å®ī": 925,
      "çĭĹ": 926,
      "è´¨": 927,
      "æ£": 928,
      "çĬ": 929,
      "æ´ģ": 930,
      "å¦Ĥä½ķ": 931,
      "å½±åĵį": 932,
      "èĩªçĦ¶": 933,
      "è®¾": 934,
      "è¿Ĳ": 935,
      "æĬ¤": 936,
      "åĮĹ": 937,
      "åĳĬè¯ī": 938,
      "å¿«": 939,
      "åĩł": 940,
      "çº¦": 941,
      "å®Į": 942,
      "æ¬¡": 943,
      "æĳĺè¦ģ": 944,
      "äºĨä¸Ģ": 945,
      "æŁ¥": 946,
      "åĳĺ": 947,
      "æīĢæľī": 948,
      "åŁİå¸Ĥ": 949,
      "ç²": 950,
      "ç»Ł": 951,
      "è¥": 952,
      "ï¼ļâĢľ": 953,
      "ç¬¬": 954,
      "åĨħå®¹": 955,
      "éĩĳ": 956,
      "çĹħ": 957,
      "ä¹°": 958,
      "ç¤¾": 959,
      "æºĲ": 960,
      "æľªæĿ¥": 961,
      "ãĢĤ\\": 962,
      "éĹ»": 963,
      "çĶŁæ´»": 964,
      "ä¸ŃåĽ½": 965,
      "æĺ¯ä¸Ģä¸ª": 966,
      "æĺĵ": 967,
      "å®ĥä»¬": 968,
      "è¿ĻäºĽ": 969,
      "è¥¿": 970,
      "åıĭ": 971,
      "æķĪ": 972,
      "æĹłæ³ķ": 973,
      "å¼º": 974,
      "éĵ": 975,
      "å¸¦": 976,
      "è¯Ħ": 977,
      "æĻļ": 978,
      "åĲ¦": 979,
      "å§ĭ": 980,
      "å¤Ł": 981,
      "è°¢": 982,
      "èįĲ": 983,
      "ç½ĳ": 984,
      "ä¸ĸçķĮ": 985,
      "åĽŃ": 986,
      "èıľ": 987,
      "åĮº": 988,
      "éĢļè¿ĩ": 989,
      "çİ°åľ¨": 990,
      "æİ¨èįĲ": 991,
      "è¶£": 992,
      "æĪ·": 993,
      "éĩįåĨĻ": 994,
      "åı²": 995,
      "æ¢": 996,
      "æ³¨": 997,
      "æķħ": 998,
      "è§ī": 999,
      "æĭ©": 1000,
      "æĸ¹æ³ķ": 1001,
      "åı·": 1002,
      "åĲĳ": 1003,
      "åŃĺ": 1004,
      "ä¸įåĲĮ": 1005,
      "éĢīæĭ©": 1006,
      "èĢĥ": 1007,
      "å¯¼": 1008,
      "åĳ¨": 1009,
      "çłĶ": 1010,
      "æľºåĻ¨": 1011,
      "æľĢè¿ĳ": 1012,
      "æĸĻ": 1013,
      "åĳ³": 1014,
      "æĪĳçļĦ": 1015,
      "ç®Ģæ´ģ": 1016,
      "ç¿»": 1017,
      "åĳĬè¯īæĪĳ": 1018,
      "åĢĻ": 1019,
      "å®ŀä½ĵ": 1020,
      "åĩĨ": 1021,
      "ä¼ł": 1022,
      "å²": 1023,
      "è¾ĳ": 1024,
      "äº¬": 1025,
      "åįģ": 1026,
      "ç¤º": 1027,
      "çĻ½": 1028,
      "åĶ": 1029,
      "ä»·": 1030,
      "éĽ¨": 1031,
      "åĪĨç±»": 1032,
      "æıĲé«ĺ": 1033,
      "åĪ°äºĨ": 1034,
      "èĮ": 1035,
      "æį¢": 1036,
      "å°ıæĺİ": 1037,
      "æİĴ": 1038,
      "äºĮ": 1039,
      "åħĭ": 1040,
      "ä¸Ķ": 1041,
      "åħ±": 1042,
      "è®¤": 1043,
      "ç«ĭ": 1044,
      "äºĶ": 1045,
      "åºĶè¯¥": 1046,
      "çľŁ": 1047,
      "éĢł": 1048,
      "æĪĺ": 1049,
      "æĸ°çļĦ": 1050,
      "æĥħæĦŁ": 1051,
      "å¹¿": 1052,
      "æĸ¹å¼ı": 1053,
      "è§ģ": 1054,
      "åĲ¬": 1055,
      "åħ³éĶ®è¯į": 1056,
      "éĹ¨": 1057,
      "ä¸Ģæ®µ": 1058,
      "çħ": 1059,
      "åĲĦ": 1060,
      "åķĨ": 1061,
      "å¤´": 1062,
      "å¤į": 1063,
      "è£": 1064,
      "çĽ¸åħ³": 1065,
      "è¯ĳ": 1066,
      "ãĢĤ\"": 1067,
      "èģĶ": 1068,
      "åħ·ä½ĵ": 1069,
      "æĸ°éĹ»": 1070,
      "ç©¶": 1071,
      "ï¼Ľ": 1072,
      "ä»¥åıĬ": 1073,
      "é¥®": 1074,
      "æĬĬ": 1075,
      "è½»": 1076,
      "æ¼Ķ": 1077,
      "æĸ¯": 1078,
      "åĩıå°ĳ": 1079,
      "åħ¶ä»ĸ": 1080,
      "å¼ķ": 1081,
      "ç¿»è¯ĳ": 1082,
      "åĬŁ": 1083,
      "ç§°": 1084,
      "ä½łçļĦ": 1085,
      "æķĻ": 1086,
      "æĸ¹éĿ¢": 1087,
      "çĥŃ": 1088,
      "è§Ĩ": 1089,
      "ä¿ĿæĬ¤": 1090,
      "æľĽ": 1091,
      "çı": 1092,
      "æĪĳæĥ³": 1093,
      "å¾Īå¤ļ": 1094,
      "ä¿®": 1095,
      "æĪĸèĢħ": 1096,
      "å®¢": 1097,
      "éļ¾": 1098,
      "è¦ģæ±Ĥ": 1099,
      "æ¦Ĥ": 1100,
      "èĳ": 1101,
      "åĮ»çĸĹ": 1102,
      "åºı": 1103,
      "è®¸": 1104,
      "è·¯": 1105,
      "æĶ¿": 1106,
      "æİ¥": 1107,
      "åĨį": 1108,
      "è¶³": 1109,
      "çĮ«": 1110,
      "ä¼ĺ": 1111,
      "åĥ": 1112,
      "ç§ĭ": 1113,
      "ä»½": 1114,
      "è®¡ç®Ĺ": 1115,
      "æĢģ": 1116,
      "åĬ¨çī©": 1117,
      "åħ´": 1118,
      "¹æŀľ": 1119,
      "æµĭ": 1120,
      "å¤ı": 1121,
      "èĭ±": 1122,
      "ä½Ĩæĺ¯": 1123,
      "çłĶç©¶": 1124,
      "èĭ¹æŀľ": 1125,
      "ç¼ĸè¾ĳ": 1126,
      "æĹ©": 1127,
      "å·²ç»ı": 1128,
      "æĢ»ç»ĵ": 1129,
      "åıĤ": 1130,
      "èĥ½å¤Ł": 1131,
      "å¢ŀ": 1132,
      "å¡": 1133,
      "æ»¡": 1134,
      "æĦıæĢĿ": 1135,
      "æīĵ": 1136,
      "åŁº": 1137,
      "é©¬": 1138,
      "æ´»åĬ¨": 1139,
      "æİ¢": 1140,
      "èİ·": 1141,
      "æŀĲ": 1142,
      "æīį": 1143,
      "çīĩ": 1144,
      "è¯Ńæ³ķ": 1145,
      "æ¶Ī": 1146,
      "åħ¨çĲĥ": 1147,
      "åįĹ": 1148,
      "äººä»¬": 1149,
      "åĨµ": 1150,
      "çļĦå¤©æ°Ķ": 1151,
      "è¶Ĭ": 1152,
      "å¤ĩ": 1153,
      "æ¨¡åŀĭ": 1154,
      "èĢģ": 1155,
      "ä¸ľ": 1156,
      "èĻĳ": 1157,
      "è°ĥ": 1158,
      "åıį": 1159,
      "å°Ŀ": 1160,
      "éŁ³ä¹Ĳ": 1161,
      "åħĥ": 1162,
      "æĸ½": 1163,
      "ç§¯": 1164,
      "èµĽ": 1165,
      "è½¬": 1166,
      "è¾ĵåħ¥": 1167,
      "åĪĴ": 1168,
      "æĲ": 1169,
      "èĩ´": 1170,
      "åĪĨæŀĲ": 1171,
      "ç»Ĩ": 1172,
      "æĿ¡": 1173,
      "ç´¢": 1174,
      "çŁ¥éģĵ": 1175,
      "èµĦ": 1176,
      "æł¹æį®ç»Ļå®ļçļĦ": 1177,
      "å¼ł": 1178,
      "çļĦä¿¡æģ¯": 1179,
      "æĺ¥": 1180,
      "è±¡": 1181,
      "åĳ¢": 1182,
      "ä»ĭ": 1183,
      "ä¾¿": 1184,
      "å½ĵçĦ¶": 1185,
      "å¥³": 1186,
      "æ®µèĲ½": 1187,
      "è®°": 1188,
      "äº§åĵģ": 1189,
      "åĥı": 1190,
      "ç¥ŀ": 1191,
      "ä½¿åħ¶æĽ´åĬł": 1192,
      "æĺ¨": 1193,
      "çļĦäºº": 1194,
      "åĳ½": 1195,
      "åĽĽ": 1196,
      "æľĭ": 1197,
      "åįİ": 1198,
      "ç§ĳæĬĢ": 1199,
      "æĽ´å¤ļ": 1200,
      "åİħ": 1201,
      "åĽ¾": 1202,
      "00": 1203,
      "çļĦéĹ®é¢ĺ": 1204,
      "çİĭ": 1205,
      "ç´ł": 1206,
      "åĮĹäº¬": 1207,
      "æĸĩç«łä¸ŃæıĲåıĸ": 1208,
      "è´Ń": 1209,
      "å¦": 1210,
      "æĶ¯": 1211,
      "éĤ£ä¹Ī": 1212,
      "ï¼ī": 1213,
      "è¿ĲåĬ¨": 1214,
      "æ²»": 1215,
      "æĺ¯åĲ¦": 1216,
      "åİĨåı²": 1217,
      "é¦Ļ": 1218,
      "æĪĲè¯Ń": 1219,
      "æŁĵ": 1220,
      "ä¾ĭå¦Ĥ": 1221,
      "äºĳ": 1222,
      "åĲĮæĹ¶": 1223,
      "ä¸½": 1224,
      "æľĭåıĭ": 1225,
      "å¤ĦçĲĨ": 1226,
      "è¯·éĹ®": 1227,
      "ä¸ªäºº": 1228,
      "èĩªå·±çļĦ": 1229,
      "çİĩ": 1230,
      "ä¿ĿæĮģ": 1231,
      "è®²": 1232,
      "è¶ħ": 1233,
      "ä»¥ä¸ĭæĸĩæľ¬": 1234,
      "ä½İ": 1235,
      "æŃ£åľ¨": 1236,
      "çĭ¬": 1237,
      "æĶ¶": 1238,
      "ãĢĤâĢĿ<|": 1239,
      "åı¤è¯Ĺ": 1240,
      "ä»»åĬ¡": 1241,
      "è¡¨è¾¾": 1242,
      "æħ": 1243,
      "çĽ´": 1244,
      "ç¾İåĽ½": 1245,
      "æķ´": 1246,
      "ĊĊ": 1247,
      "æĿ¾": 1248,
      "éļı": 1249,
      "è®¨": 1250,
      "åĭ": 1251,
      "åŃ£": 1252,
      "ä¸Ģåı¥è¯Ŀ": 1253,
      "è®¸å¤ļ": 1254,
      "æĸĩç«łä¸Ń": 1255,
      "æķħäºĭ": 1256,
      "åĪ¤": 1257,
      "éĺŁ": 1258,
      "ç¢": 1259,
      "å¸ĥ": 1260,
      "çħ§": 1261,
      "ä¹ĭä¸Ģ": 1262,
      "èĩ³": 1263,
      "è¿Ļåı¥è¯Ŀ": 1264,
      "å¤±": 1265,
      "ç»į": 1266,
      "æĽ¿": 1267,
      "æĪĳåı¯ä»¥": 1268,
      "æĪĳä»¬çļĦ": 1269,
      "éĻ©": 1270,
      "åŃĺåľ¨": 1271,
      "æĹħæ¸¸": 1272,
      "åħ¶ä¸Ń": 1273,
      "å°ıè¯´": 1274,
      "ä»ĸçļĦ": 1275,
      "éªĮ": 1276,
      "ï¼Ī": 1277,
      "å¤ľ": 1278,
      "ä¹īè¯į": 1279,
      "çļĦæĸĩæľ¬": 1280,
      "çĬ¶": 1281,
      "é¤Ĳåİħ": 1282,
      "ç²¾": 1283,
      "è§Ħ": 1284,
      "å°Ķ": 1285,
      "å£°": 1286,
      "æĦŁåĪ°": 1287,
      "ä»ĭç»į": 1288,
      "çº¿": 1289,
      "éĢŁ": 1290,
      "ä¸Ģç¯ĩ": 1291,
      "é²": 1292,
      "åĲ¸": 1293,
      "å°Ŀè¯ķ": 1294,
      "ä¸ĩ": 1295,
      "åħĪ": 1296,
      "å°½ç®¡": 1297,
      "è¾¹": 1298,
      "æīĢä»¥": 1299,
      "éĩįæĸ°": 1300,
      "è¯ĨåĪ«": 1301,
      "åıĺåĮĸ": 1302,
      "å¤§çļĦ": 1303,
      "èĽ": 1304,
      "æĢİ": 1305,
      "ä¸ºæĤ¨": 1306,
      "ç¬¦": 1307,
      "æŀĹ": 1308,
      "ç§ĳåŃ¦": 1309,
      "AI": 1310,
      "é£ŀ": 1311,
      "ä¼¼": 1312,
      "æŀĦ": 1313,
      "çĶ±äºİ": 1314,
      "åıĳçİ°": 1315,
      "çŃīçŃī": 1316,
      "åĪĻ": 1317,
      "å¨": 1318,
      "æ°ĳ": 1319,
      "æĶ¹åĨĻ": 1320,
      "èº«ä½ĵ": 1321,
      "æľįåĬ¡": 1322,
      "åĵªäºĽ": 1323,
      "è¾ĥ": 1324,
      "åĮħåĲ«": 1325,
      "æľīåħ³": 1326,
      "çĲĨè§£": 1327,
      "æĤ¨åı¯ä»¥": 1328,
      "20": 1329,
      "åĽłæŃ¤": 1330,
      "å¿ħ": 1331,
      "éĩĩ": 1332,
      "æĤ¨çļĦ": 1333,
      "å·´": 1334,
      "çģ«": 1335,
      "æİª": 1336,
      "é»Ħ": 1337,
      "åħ¬åĽŃ": 1338,
      "æľīè¶£": 1339,
      "æ±¡": 1340,
      "èįī": 1341,
      "æĺİå¤©": 1342,
      "æĭī": 1343,
      "è§£åĨ³": 1344,
      "æĸĩåĮĸ": 1345,
      "åĢ¼": 1346,
      "æķ£": 1347,
      "éĩĬ": 1348,
      "è¿ľ": 1349,
      "èģĬ": 1350,
      "æĿİ": 1351,
      "èĤ²": 1352,
      "å³": 1353,
      "å¸®æĪĳ": 1354,
      "ç³ĸ": 1355,
      "ç¦»": 1356,
      "ç»ĥ": 1357,
      "åºĹ": 1358,
      "çª": 1359,
      "çļĦçĶµå½±": 1360,
      "åł": 1361,
      "æĪĳåĸľæ¬¢": 1362,
      "åħ·æľī": 1363,
      "åĦ": 1364,
      "è®¤ä¸º": 1365,
      "åĲįç§°": 1366,
      "è®¡åĪĴ": 1367,
      "æĺ¯ä¸Ģç§į": 1368,
      "çļĦä¸»è¦ģ": 1369,
      "å®ĮæĪĲ": 1370,
      "çºł": 1371,
      "èĻ½": 1372,
      "è¿ĺæĺ¯": 1373,
      "åĪ¤æĸŃ": 1374,
      "ä¸Ģé¦ĸ": 1375,
      "æ±¡æŁĵ": 1376,
      "èī²çļĦ": 1377,
      "å£«": 1378,
      "æĥħåĨµ": 1379,
      "æĺ¨å¤©": 1380,
      "æłĳ": 1381,
      "æļĸ": 1382,
      "çĳ": 1383,
      "åį³": 1384,
      "æī¾åĪ°": 1385,
      "æĬ±": 1386,
      "ç¿»è¯ĳæĪĲ": 1387,
      "æĪ¿": 1388,
      "äº«": 1389,
      "æŃ£ç¡®": 1390,
      "è§ĤçĤ¹": 1391,
      "éĢĤåĲĪ": 1392,
      "åĴĸ": 1393,
      "é¥®é£Ł": 1394,
      "æ¤": 1395,
      "æİªæĸ½": 1396,
      "ä½łåı¯ä»¥": 1397,
      "æľºåĻ¨åŃ¦ä¹ł": 1398,
      "èµ°": 1399,
      "ä»İæĸĩç«łä¸ŃæıĲåıĸ": 1400,
      "éĻį": 1401,
      "ç¤¾ä¼ļ": 1402,
      "åı¶": 1403,
      "æ¹": 1404,
      "ä»¤": 1405,
      "ä½ľä¸º": 1406,
      "åľ°çĲĥ": 1407,
      "å¸Į": 1408,
      "åİĭ": 1409,
      "ç»ŃåĨĻ": 1410,
      "çİ©": 1411,
      "åķ¡": 1412,
      "é¦Ĩ": 1413,
      "èĳĹ": 1414,
      "åĴĸåķ¡": 1415,
      "ç§¯æŀģ": 1416,
      "åĬ¿": 1417,
      "äºļ": 1418,
      "ä¸Ģèµ·": 1419,
      "å¤ªéĺ³": 1420,
      "è¯¢": 1421,
      "è§Ĵ": 1422,
      "éħĴ": 1423,
      "å¼Ģå§ĭ": 1424,
      "æ¬¾": 1425,
      "åı°": 1426,
      "æĪĲä¸º": 1427,
      "åĸĦ": 1428,
      "æĽ²": 1429,
      "çŃĸ": 1430,
      "å¸Ī": 1431,
      "ç½®": 1432,
      "åĩºå¤Ħ": 1433,
      "åħħ": 1434,
      "èĤī": 1435,
      "åģĩ": 1436,
      "ç»¿": 1437,
      "è®¡ç®Ĺæľº": 1438,
      "ä¸īä¸ª": 1439,
      "ç±»åŀĭ": 1440,
      "è¡£": 1441,
      "åįĩ": 1442,
      "ç®Ģåįķ": 1443,
      "èĲ¥": 1444,
      "ç«Ļ": 1445,
      "ä¸įèĥ½": 1446,
      "å¯»": 1447,
      "ä¹ĭéĹ´": 1448,
      "æĪĲè¯Ńåĩºå¤Ħ": 1449,
      "ç³»ç»Ł": 1450,
      "åĦ¿": 1451,
      "çļĦåºĶçĶ¨": 1452,
      "ä¸¾": 1453,
      "çĦ¶åĲİ": 1454,
      "æ°ĶåĢĻ": 1455,
      "æ¯Ķå¦Ĥ": 1456,
      "èĵ": 1457,
      "ä½¿åħ¶æĽ´": 1458,
      "åıĪ": 1459,
      "æ¯ĶèµĽ": 1460,
      "åİ»äºĨ": 1461,
      "å¾·": 1462,
      "é±": 1463,
      "ç»ĩ": 1464,
      "åºľ": 1465,
      "æĪı": 1466,
      "é±¼": 1467,
      "æ¥": 1468,
      "æĹħè¡Į": 1469,
      "å¯¼èĩ´": 1470,
      "èķ": 1471,
      "éĻ¤": 1472,
      "æĽ¿æį¢": 1473,
      "é£Łçī©": 1474,
      "çĶ»": 1475,
      "æ¦Ĥæĭ¬": 1476,
      "æľīä»Ģä¹Ī": 1477,
      "æĢİä¹Ī": 1478,
      "äººçļĦ": 1479,
      "åħ³ç³»": 1480,
      "æ²Ļ": 1481,
      "çĻ¾": 1482,
      "èĻ½çĦ¶": 1483,
      "çļĦæĸĩç«ł": 1484,
      "æĴ": 1485,
      "é¾": 1486,
      "æ¢¦": 1487,
      "é¸Ł": 1488,
      "å·§": 1489,
      "è·ĳ": 1490,
      "çİ°ä»£": 1491,
      "çĨ": 1492,
      "çļĦåľ°": 1493,
      "æĸĩåŃĹ": 1494,
      "é£İæł¼": 1495,
      "ä¸ĵ": 1496,
      "éħį": 1497,
      "é»ĳ": 1498,
      "äºĨè§£": 1499,
      "ç¬ĳ": 1500,
      "éĽĨ": 1501,
      "éĺ²": 1502,
      "æµİ": 1503,
      "èĥ½åĬĽ": 1504,
      "éĶĢ": 1505,
      "èħ": 1506,
      "éĺħ": 1507,
      "çļĦä¸Ģ": 1508,
      "æŃī": 1509,
      "ç»´": 1510,
      "åħ»": 1511,
      "æŁĲ": 1512,
      "çļĦå½±åĵį": 1513,
      "å¸¦æĿ¥": 1514,
      "è¯ĹæŃĮ": 1515,
      "æĮī": 1516,
      "åĨĽ": 1517,
      "éĻħ": 1518,
      "çīĽ": 1519,
      "æĮĳ": 1520,
      "åħį": 1521,
      "å·ŀ": 1522,
      "ä»İè¿Ļç¯ĩæĸĩç«ł": 1523,
      "å®īåħ¨": 1524,
      "æĿĲ": 1525,
      "åī§": 1526,
      "ç»Ī": 1527,
      "äººåĲį": 1528,
      "æĬ½": 1529,
      "è¿Ļæ®µ": 1530,
      "æĬ±æŃī": 1531,
      "æĿ¯": 1532,
      "è´¹": 1533,
      "éĻ¢": 1534,
      "èĽĭ": 1535,
      "æĭ¼": 1536,
      "ç®ĢçŁŃ": 1537,
      "ç±³": 1538,
      "ç©¿": 1539,
      "æĺİäºĨ": 1540,
      "è¿ĺæľī": 1541,
      "ç»ĵæŀľ": 1542,
      "è¯Ħè®º": 1543,
      "å¸Ĥåľº": 1544,
      "ä¸¤ä¸ªåı¥åŃĲ": 1545,
      "äºĴ": 1546,
      "åŃ©": 1547,
      "ä»į": 1548,
      "åĩĨç¡®": 1549,
      "ç»Ħç»ĩ": 1550,
      "èģĮ": 1551,
      "éĨ": 1552,
      "æĪĲåĬŁ": 1553,
      "çĶ·": 1554,
      "æĪĳä¼ļ": 1555,
      "è¾ĵåĩº": 1556,
      "çĿ¡": 1557,
      "å¿µ": 1558,
      "å¾Ģ": 1559,
      "å³°": 1560,
      "å¸ĮæľĽ": 1561,
      "ä»»ä½ķ": 1562,
      "å¯Į": 1563,
      "å¾®": 1564,
      "å±ŀ": 1565,
      "æ½": 1566,
      "è¿ŀ": 1567,
      "è´Ł": 1568,
      "å°Ĩåħ¶": 1569,
      "çĸ¾": 1570,
      "ç¨ĭåºı": 1571,
      "æµª": 1572,
      "èĥ½æºĲ": 1573,
      "é¢ĦæĬ¥": 1574,
      "ä¿®æĶ¹": 1575,
      "æ²³": 1576,
      "ä¸įåĲĮçļĦ": 1577,
      "æ¿": 1578,
      "èĦĳ": 1579,
      "æ©": 1580,
      "æ¯į": 1581,
      "éĺħè¯»": 1582,
      "çĶ¨æĪ·": 1583,
      "å¦Ĥæŀľä½ł": 1584,
      "éĻĲ": 1585,
      "åĩłä¸ª": 1586,
      "èµ·æĿ¥": 1587,
      "éĿĻ": 1588,
      "åĲ§": 1589,
      "ç»ıæµİ": 1590,
      "å±ħ": 1591,
      "å®¤": 1592,
      "æ°´æŀľ": 1593,
      "åĽ´": 1594,
      "çŁ³": 1595,
      "èŀ": 1596,
      "æĩ": 1597,
      "æ³¨æĦı": 1598,
      "éĥ¨çĶµå½±": 1599,
      "å¯¹äºİ": 1600,
      "å®ĥçļĦ": 1601,
      "å½Ĵ": 1602,
      "éĿĴ": 1603,
      "è£ħ": 1604,
      "äº¤éĢļ": 1605,
      "å¯Ĩ": 1606,
      "æĵ": 1607,
      "è¯Ĭ": 1608,
      "èĢĥèĻĳ": 1609,
      "å¾ĭ": 1610,
      "æľĢé«ĺ": 1611,
      "æ¸¸æĪı": 1612,
      "è¿Ļæĺ¯ä¸Ģ": 1613,
      "èĩªåĬ¨": 1614,
      "è¯·æıĲä¾Ľ": 1615,
      "æĺ¾": 1616,
      "éĥ½æĺ¯": 1617,
      "åĬª": 1618,
      "10": 1619,
      "çķħ": 1620,
      "æĶ¿åºľ": 1621,
      "èīº": 1622,
      "ç»Ļå®ļä¸Ģä¸ª": 1623,
      "èĶ": 1624,
      "æīįèĥ½": 1625,
      "æĭ¥": 1626,
      "æĮĳæĪĺ": 1627,
      "åĬªåĬĽ": 1628,
      "å®³": 1629,
      "èĵĿ": 1630,
      "éĢīé¡¹": 1631,
      "ä¸Ģä»½": 1632,
      "åĩºçİ°": 1633,
      "åĨĻä¸Ģä¸ª": 1634,
      "é¼": 1635,
      "åĬŀ": 1636,
      "ç¼ĵ": 1637,
      "ä¸ºä»Ģä¹Ī": 1638,
      "ĥåľ": 1639,
      "åĨ°": 1640,
      "å°¼": 1641,
      "åįĥ": 1642,
      "éĢģ": 1643,
      "åŀĥåľ": 1644,
      "åŀĥåľ¾": 1645,
      "ä¸ĬçļĦ": 1646,
      "æķĻèĤ²": 1647,
      "ä¸Ģç§į": 1648,
      "èİ·å¾Ĺ": 1649,
      "æ³Ľ": 1650,
      "æĭ¼åĨĻ": 1651,
      "æ±Ł": 1652,
      "éº": 1653,
      "åĳ¼": 1654,
      "æ£Ģ": 1655,
      "é¹": 1656,
      "äº®": 1657,
      "ç¾İä¸½": 1658,
      "éĩİ": 1659,
      "å®ŀçİ°": 1660,
      "å¹¶ä¸Ķ": 1661,
      "çĸ¾çĹħ": 1662,
      "äºĨä¸Ģä¸ª": 1663,
      "é¢ĺçĽ®": 1664,
      "çīĮ": 1665,
      "é¸¡": 1666,
      "è¿İ": 1667,
      "èŀį": 1668,
      "æ´²": 1669,
      "çĵ": 1670,
      "æīĢæľīçļĦ": 1671,
      "ä¼ģ": 1672,
      "è´¨éĩı": 1673,
      "èĥľ": 1674,
      "åıĤåĬł": 1675,
      "çļĦéĩįè¦ģ": 1676,
      "æ»©": 1677,
      "çķĻ": 1678,
      "é¢ľ": 1679,
      "å¥ĩ": 1680,
      "æł¡": 1681,
      "æ¯ıå¤©": 1682,
      "æĪĳæĹłæ³ķ": 1683,
      "ä½łèĥ½": 1684,
      "èĩªçĦ¶è¯Ńè¨Ģ": 1685,
      "çĸ«": 1686,
      "è¿Ļæĺ¯": 1687,
      "å¤ļå°ĳ": 1688,
      "å¾Īå¥½": 1689,
      "ç¬Ķ": 1690,
      "è§£éĩĬ": 1691,
      "å¦ĤæŀľæĤ¨": 1692,
      "å¾ħ": 1693,
      "åĲįåŃĹ": 1694,
      "ä½¿åħ¶æĽ´åĬłç®Ģæ´ģ": 1695,
      "åĲĦç§į": 1696,
      "æĬ½åıĸ": 1697,
      "æĳĦ": 1698,
      "ç½Ĺ": 1699,
      "æľīå¾Īå¤ļ": 1700,
      "é¡º": 1701,
      "\"<|": 1702,
      "æ¸ħæĻ": 1703,
      "ä¸įæĺ¯": 1704,
      "æľĹ": 1705,
      "éģĩ": 1706,
      "éĤ®": 1707,
      "ä»İè¿Ļç¯ĩæĸĩç«łä¸ŃæıĲåıĸ": 1708,
      "åª": 1709,
      "åı¦": 1710,
      "åŃ¦çĶŁ": 1711,
      "å½¢å®¹": 1712,
      "ç¦ı": 1713,
      "åĸĿ": 1714,
      "åĨ³å®ļ": 1715,
      "æ°ĶåĢĻåıĺåĮĸ": 1716,
      "è¿Ļä¸ªåı¥åŃĲ": 1717,
      "ä¼Ĺ": 1718,
      "æĮģç»Ń": 1719,
      "è¯ĬæĸŃ": 1720,
      "çļĦåįķè¯į": 1721,
      "çĤ¼": 1722,
      "è°ģ": 1723,
      "åĮ»çĶŁ": 1724,
      "æĻ®": 1725,
      "åįĪ": 1726,
      "æĽ´å¥½": 1727,
      "é¥Ń": 1728,
      "çłģ": 1729,
      "æ¼«": 1730,
      "äºī": 1731,
      "éĩįåĨĻä»¥ä¸ĭåı¥åŃĲ": 1732,
      "è®¾è®¡": 1733,
      "æĹ¶åĢĻ": 1734,
      "åĲĮä¹īè¯į": 1735,
      "å¥¶": 1736,
      "ç¡®å®ļ": 1737,
      "çŁŃè¯Ń": 1738,
      "è´Ńä¹°": 1739,
      "åħ¸": 1740,
      "ä¸ĸçķĮä¸Ĭ": 1741,
      "å½ĵçĦ¶åı¯ä»¥": 1742,
      "å¢ŀåĬł": 1743,
      "éĩįè¦ģçļĦ": 1744,
      "éĺ³åħī": 1745,
      "ç¼º": 1746,
      "å¹²": 1747,
      "åıĳçĶŁ": 1748,
      "äºĭä»¶": 1749,
      "æİ§": 1750,
      "åĸľæ¬¢çļĦ": 1751,
      "é¡»": 1752,
      "ä»·æł¼": 1753,
      "ç»Ļåĩºä¸Ģä¸ª": 1754,
      "åºŃ": 1755,
      "æ¿Ģ": 1756,
      "è¯¦": 1757,
      "çľ¼": 1758,
      "çĦ¦": 1759,
      "è®¨è®º": 1760,
      "æ´ĭ": 1761,
      "è¯·ä½ł": 1762,
      "è¯ģ": 1763,
      "ç¼ĸç¨ĭ": 1764,
      "æīĭæľº": 1765,
      "éŃ": 1766,
      "éĢļå¸¸": 1767,
      "å¤ıå¤©": 1768,
      "æ³¢": 1769,
      "æ±ī": 1770,
      "å¹¿æ³Ľ": 1771,
      "æ²»çĸĹ": 1772,
      "åİĭåĬĽ": 1773,
      "âĢĿãĢĤ": 1774,
      "ä¸įéĶĻ": 1775,
      "è¯·æıĲåıĸ": 1776,
      "äº²": 1777,
      "åĲ«ä¹ī": 1778,
      "æ±½": 1779,
      "éĩĩåıĸ": 1780,
      "æ°Ķæ¸©": 1781,
      "åĽ¢": 1782,
      "æ¯Ķè¾ĥ": 1783,
      "åĨ·": 1784,
      "è¯įè¯Ń": 1785,
      "çĽ¸åĲĮ": 1786,
      "å®ĺ": 1787,
      "æĶ¹åıĺ": 1788,
      "äººå·¥æĻºèĥ½åľ¨": 1789,
      "ï¼ģ<|": 1790,
      "æĥĬ": 1791,
      "æĶ¾æĿ¾": 1792,
      "çıŃ": 1793,
      "æĦŁè§ī": 1794,
      "åĵªä¸ª": 1795,
      "ä¸´": 1796,
      "éĺ¿": 1797,
      "æĪĳä¸į": 1798,
      "è°¢è°¢": 1799,
      "èī¯": 1800,
      "ç¥¨": 1801,
      "æľ¨": 1802,
      "çļĦåıĳå±ķ": 1803,
      "ç¾İé£Ł": 1804,
      "æĬķ": 1805,
      "æİ¢ç´¢": 1806,
      "é¢Ħæµĭ": 1807,
      "æ¤į": 1808,
      "ç®¡çĲĨ": 1809,
      "åĿļ": 1810,
      "è®©æĪĳ": 1811,
      "ä¸¥": 1812,
      "ä¹Łåı¯ä»¥": 1813,
      "å½©": 1814,
      "æıĲåĪ°": 1815,
      "èľ": 1816,
      "æĲľ": 1817,
      "æĹ¨": 1818,
      "å½ĵåľ°": 1819,
      "æľĿ": 1820,
      "ä¸įæĸŃ": 1821,
      "æĸĩæľ¬ä¸Ń": 1822,
      "ä½³": 1823,
      "æľ¬ä¹¦": 1824,
      "èį¯": 1825,
      "æıĲä¾Ľä¸Ģä¸ª": 1826,
      "æ±ĩ": 1827,
      "çĶµåŃĲ": 1828,
      "çº§": 1829,
      "ä¼ļè®®": 1830,
      "è¡¨çİ°": 1831,
      "åĽ°": 1832,
      "èĳĹåĲį": 1833,
      "è¿Ļéĥ¨çĶµå½±": 1834,
      "åİŁå§ĭ": 1835,
      "æ¸ħæĻ°": 1836,
      "è¯·åĳĬè¯īæĪĳ": 1837,
      "æķ°åŃĹ": 1838,
      "è¿Ļæł·": 1839,
      "éģ¿": 1840,
      "æľ«": 1841,
      "åº§": 1842,
      "è®Ń": 1843,
      "æµģçķħ": 1844,
      "åį¡": 1845,
      "çģµ": 1846,
      "çĽ®æłĩ": 1847,
      "éĥ¨åĪĨ": 1848,
      "æĬ¥éģĵ": 1849,
      "çļĦæĸ¹æ³ķ": 1850,
      "è¯¦ç»Ĩ": 1851,
      "çĹĩ": 1852,
      "è¯Ńæ³ķéĶĻè¯¯": 1853,
      "éĽª": 1854,
      "è®²è¿°": 1855,
      "çľł": 1856,
      "èĩªçĦ¶è¯Ńè¨Ģå¤ĦçĲĨ": 1857,
      "ä»ĸä»¬çļĦ": 1858,
      "ç¤¼": 1859,
      "ä¼¤": 1860,
      "åĶ®": 1861,
      "èĶ¬": 1862,
      "çĩ": 1863,
      "çĽĬ": 1864,
      "äºĭæĥħ": 1865,
      "æ·»": 1866,
      "è¿½": 1867,
      "ä¸Ĭæµ·": 1868,
      "å¯Ĵ": 1869,
      "å°Ĩä»¥ä¸ĭ": 1870,
      "çĽ¸åħ³çļĦ": 1871,
      "æķ£æŃ¥": 1872,
      "ä¸ĭåĪĹ": 1873,
      "æ¸©åº¦": 1874,
      "çĸĳ": 1875,
      "é²ľ": 1876,
      "åĪļ": 1877,
      "å°Ĩä»¥ä¸ĭåı¥åŃĲ": 1878,
      "äººå·¥æĻºèĥ½æĬĢæľ¯": 1879,
      "èĴ": 1880,
      "çł´": 1881,
      "å®Ŀ": 1882,
      "æľīæķĪ": 1883,
      "__": 1884,
      "èµĦæºĲ": 1885,
      "æĹ©ä¸Ĭ": 1886,
      "çº½": 1887,
      "æĦıä¹ī": 1888,
      "å¾ģ": 1889,
      "æĿĤ": 1890,
      "è½¯": 1891,
      "ä¸Ģç¯ĩæĸĩç«ł": 1892,
      "è¿Ļä¸ªéĹ®é¢ĺ": 1893,
      "çļĦæĦıæĢĿ": 1894,
      "åĪ©çĶ¨": 1895,
      "ç»Ŀ": 1896,
      "æ±½è½¦": 1897,
      "ç¬¬ä¸Ģ": 1898,
      "åľ°çĤ¹": 1899,
      "éľĢæ±Ĥ": 1900,
      "ä¼ģä¸ļ": 1901,
      "çºłéĶĻ": 1902,
      "å¹»": 1903,
      "çŁ¥è¯Ĩ": 1904,
      "çĪ±æĥħ": 1905,
      "åĪ»": 1906,
      "èĪĴ": 1907,
      "æĪĳå¾Ī": 1908,
      "æľīè¶£çļĦ": 1909,
      "ç¤¾äº¤": 1910,
      "åİŁåĽł": 1911,
      "è§īå¾Ĺ": 1912,
      "çĦ¦èĻĳ": 1913,
      "åĪĿ": 1914,
      "è¿Ļæĺ¯ä¸Ģä¸ª": 1915,
      "éĶ»": 1916,
      "èŃ": 1917,
      "å²ģ": 1918,
      "æĽ´å¤ļçļĦ": 1919,
      "æĽ´å¥½åľ°": 1920,
      "éĤ®ä»¶": 1921,
      "æ²¹": 1922,
      "éĶ»çĤ¼": 1923,
      "åĪ¶ä½ľ": 1924,
      "åĵĪ": 1925,
      "äº§çĶŁ": 1926,
      "çº½çº¦": 1927,
      "æ³³": 1928,
      "æķĪçİĩ": 1929,
      "Ġ\"": 1930,
      "çľĭåĪ°": 1931,
      "åħ·ä½ĵçļĦ": 1932,
      "ä¸Ģåıª": 1933,
      "ä½ľèĢħ": 1934,
      "åħ´è¶£": 1935,
      "è¿Ļç§į": 1936,
      "å¨ģ": 1937,
      "èĪŀ": 1938,
      "èĶ¬èıľ": 1939,
      "éĢĤå½ĵ": 1940,
      "è¡ĮåĬ¨": 1941,
      "åĿĩ": 1942,
      "åĿĲ": 1943,
      "çĥ¤": 1944,
      "ç½ĳç«Ļ": 1945,
      "æŃ¤å¤ĸ": 1946,
      "èĮĥ": 1947,
      "æĲľç´¢": 1948,
      "ä¸Ńå¿ĥ": 1949,
      "å¼Ĥ": 1950,
      "çĽ®åīį": 1951,
      "æĮīçħ§": 1952,
      "ç®ĢçŁŃçļĦ": 1953,
      "çľĭçĶµå½±": 1954,
      "è¿Ļç¯ĩæĸĩç«łçļĦ": 1955,
      "æĸ¹æ¡Ī": 1956,
      "å¥¥": 1957,
      "åľ¨å®¶": 1958,
      "é£Łåĵģ": 1959,
      "çīĪ": 1960,
      "å±ŀäºİ": 1961,
      "éĴ±": 1962,
      "æĭ¥æľī": 1963,
      "åħ³éĶ®ä¿¡æģ¯": 1964,
      "ä¸ĭæĸĩ": 1965,
      "âĢĿï¼Į": 1966,
      "åı¯èĥ½ä¼ļ": 1967,
      "çĶŁæĢģ": 1968,
      "çĶ¨äºİ": 1969,
      "é¾Ļ": 1970,
      "ä½ı": 1971,
      "æ¥¼": 1972,
      "åħŃ": 1973,
      "å°ıçº¢": 1974,
      "åįļ": 1975,
      "çļĦæĺ¯": 1976,
      "åħ¶ä¸ŃçļĦ": 1977,
      "æĻ´": 1978,
      "èĲ¨": 1979,
      "é¡¹çĽ®": 1980,
      "éĴŁ": 1981,
      "ç»ª": 1982,
      "çļĦé£İæł¼": 1983,
      "åŃ¤": 1984,
      "æł¹æį®ä»¥ä¸ĭ": 1985,
      "åĬŁèĥ½": 1986,
      "ä»İæĸĩç«łä¸ŃæıĲåıĸåĩº": 1987,
      "ä¹ĭéĹ´çļĦ": 1988,
      "åĤ": 1989,
      "åħ¬åı¸çļĦ": 1990,
      "æĥ³è¦ģ": 1991,
      "éĻĪ": 1992,
      "ç®Ĺæ³ķ": 1993,
      "çĶµè§Ĩ": 1994,
      "åĲįè¯į": 1995,
      "åĩĨå¤ĩ": 1996,
      "è¶ħè¿ĩ": 1997,
      "å®£": 1998,
      "äº«åıĹ": 1999,
      "æ¯ıä¸ª": 2000,
      "ä¼¦": 2001,
      "æŃ»": 2002,
      "å¾ĹåĪ°": 2003,
      "æķ°åŃ¦": 2004,
      "è¯Ńè¨Ģæ¨¡åŀĭ": 2005,
      "åĪĩ": 2006,
      "æıĲåĩº": 2007,
      "è¶ĭ": 2008,
      "è¿Ļå®¶": 2009,
      "æĶ¯æĮģ": 2010,
      "æ¸¸æ³³": 2011,
      "ç³ĸæŀľ": 2012,
      "æĶ¹åĸĦ": 2013,
      "å½ķ": 2014,
      "æĪĳéľĢè¦ģ": 2015,
      "æĢ§çļĦ": 2016,
      "ä½įç½®": 2017,
      "è¡Įä¸º": 2018,
      "é¢ĳ": 2019,
      "ç»ľ": 2020,
      "æıĲä¾ĽçļĦ": 2021,
      "æĻļä¸Ĭ": 2022,
      "æĸĩç«łä¸ŃçļĦ": 2023,
      "å¤«": 2024,
      "åį´": 2025,
      "æĬ½åıĸåĩº": 2026,
      "æĸĩæľ¬ä¸ŃçļĦ": 2027,
      "æ¬¢è¿İ": 2028,
      "é¢ľèī²": 2029,
      "ï¼ļãĢĬ": 2030,
      "åı¯ä»¥å¸®åĬ©": 2031,
      "ç»ıå¸¸": 2032,
      "åľŁ": 2033,
      "åį°": 2034,
      "åľ°åĮº": 2035,
      "æ¯Ľ": 2036,
      "èĸ": 2037,
      "é£İéĻ©": 2038,
      "å¡ĳ": 2039,
      "ä»¥ä¾¿": 2040,
      "ä½ĵéªĮ": 2041,
      "å®ļçļĦ": 2042,
      "ä»ħ": 2043,
      "çķ¥": 2044,
      "å¿ħé¡»": 2045,
      "ä¸°": 2046,
      "ä½ľçĶ¨": 2047,
      "èĹ": 2048,
      "åħ³æ³¨": 2049,
      "ç¼ĵè§£": 2050,
      "éģ¿åħį": 2051,
      "ç½ĳç»ľ": 2052,
      "æŃĮæĽ²": 2053,
      "æĻ¯çĤ¹": 2054,
      "ä¹ħ": 2055,
      "ç´§": 2056,
      "è´ŁéĿ¢": 2057,
      "åĪĹè¡¨": 2058,
      "çļĦå»ºè®®": 2059,
      "èĥĮ": 2060,
      "æľ¬æĸĩ": 2061,
      "ä»Ģä¹Īæĺ¯": 2062,
      "æĺĵäºİ": 2063,
      "åķĨåĵģ": 2064,
      "å¿Ĺ": 2065,
      "è¡¡": 2066,
      "å°±æĺ¯": 2067,
      "ç¹": 2068,
      "çªģ": 2069,
      "ä¾Ŀ": 2070,
      "ç¼ĸåĨĻ": 2071,
      "è´£": 2072,
      "ä¸ĵä¸ļ": 2073,
      "æĤ£": 2074,
      "çĻ»": 2075,
      "åľºæĻ¯": 2076,
      "åĩ»": 2077,
      "èĭ±è¯Ń": 2078,
      "ä»įçĦ¶": 2079,
      "åĪĽå»º": 2080,
      "ä»ĭç»įäºĨ": 2081,
      "ç¬¬äºĮ": 2082,
      "æĽ¾": 2083,
      "æ£ĢæŁ¥": 2084,
      "æ£Ĵ": 2085,
      "ä¸Ģç»Ħ": 2086,
      "åĪĽéĢł": 2087,
      "æ·»åĬł": 2088,
      "å¿ĥçĲĨ": 2089,
      "éĵģ": 2090,
      "æĩĤ": 2091,
      "çĶŁäº§": 2092,
      "ä¸ºäºĨ": 2093,
      "åĳ¼åĲ¸": 2094,
      "çľģ": 2095,
      "è´Ńçī©": 2096,
      "æ©Ļ": 2097,
      "å®¶åºŃ": 2098,
      "èīºæľ¯": 2099,
      "å¤§åĪ©": 2100,
      "éĩĳèŀį": 2101,
      "ç©ºæ°Ķ": 2102,
      "çĶŁçī©": 2103,
      "çĶŁåĳ½": 2104,
      "ä¹Łæĺ¯": 2105,
      "å½¢å¼ı": 2106,
      "è¶ĭåĬ¿": 2107,
      "å°ļ": 2108,
      "åı¤è¯Ĺç»ŃåĨĻ": 2109,
      "æıĲåĪ°äºĨ": 2110,
      "åŃ¦æł¡": 2111,
      "æ¹ĸ": 2112,
      "éĵ¶": 2113,
      "æĪĲä¸Ģä¸ª": 2114,
      "åĵģçīĮ": 2115,
      "é©¾": 2116,
      "æĬ¥åĳĬ": 2117,
      "èĪª": 2118,
      "è¿ĩç¨ĭ": 2119,
      "æĭŁ": 2120,
      "æĪĳåľ¨": 2121,
      "åıĺæļĸ": 2122,
      "è¡¨ç¤º": 2123,
      "æĪĳä»¬åı¯ä»¥": 2124,
      "è¡Įä¸ļ": 2125,
      "åı«": 2126,
      "æŃ¢": 2127,
      "åıĮ": 2128,
      "è®Ńç»ĥ": 2129,
      "å¯»æī¾": 2130,
      "åĪĽæĦı": 2131,
      "åįĬ": 2132,
      "ç¾¤": 2133,
      "æŁ¥è¯¢": 2134,
      "è½¬æį¢": 2135,
      "å¿«ä¹Ĳ": 2136,
      "ä¼ĳ": 2137,
      "åĩī": 2138,
      "æŃ£éĿ¢": 2139,
      "æĸĩè¨Ģ": 2140,
      "åĨ¬": 2141,
      "æĸĩè¨Ģæĸĩ": 2142,
      "åħ°": 2143,
      "è¿Ļç¯ĩ": 2144,
      "ä¹Ŀ": 2145,
      "åıĺå¾Ĺ": 2146,
      "ä½įäºİ": 2147,
      "æİ¨çĲĨ": 2148,
      "æıĲåıĸåĩº": 2149,
      "çĽ¾": 2150,
      "åĿĹ": 2151,
      "æĬĢå·§": 2152,
      "å©": 2153,
      "èİ·åıĸ": 2154,
      "æİ§åĪ¶": 2155,
      "çİī": 2156,
      "åį«": 2157,
      "éĢĤçļĦ": 2158,
      "ä¸ĢçĽ´": 2159,
      "å¹¸": 2160,
      "æľĢç»Ī": 2161,
      "æĿ¥è¶Ĭ": 2162,
      "ç¾İåĳ³": 2163,
      "19": 2164,
      "çĶµèĦĳ": 2165,
      "ä¸Ńæĸĩ": 2166,
      "æĪĳæľĢè¿ĳ": 2167,
      "ãĢĭãĢģ": 2168,
      "..": 2169,
      "ä¸Ńç«ĭ": 2170,
      "çī¹åĪ«": 2171,
      "100": 2172,
      "è¶ĬæĿ¥è¶Ĭ": 2173,
      "åĮ»åŃ¦": 2174,
      "æİĴæĶ¾": 2175,
      "ä¸Ģæ¬¡": 2176,
      "æĸĩç«łçļĦ": 2177,
      "åĽ½å®¶": 2178,
      "çºª": 2179,
      "æĦŁåıĹ": 2180,
      "åĲ¸å¼ķ": 2181,
      "çŁĽ": 2182,
      "æĪĳæ²¡æľī": 2183,
      "å·¨": 2184,
      "åĨľ": 2185,
      "åı¯æĮģç»Ń": 2186,
      "å¤©çļĦ": 2187,
      "åĳ¨æľ«": 2188,
      "ç¡®ä¿Ŀ": 2189,
      "è¯įæ±ĩ": 2190,
      "ä»¿": 2191,
      "çļ®": 2192,
      "åĨł": 2193,
      "åģ¥èº«": 2194,
      "èĿ": 2195,
      "ä¸ĥ": 2196,
      "æĢ»æĺ¯": 2197,
      "ä»¤äºº": 2198,
      "çŁĽçĽ¾": 2199,
      "æ¬§": 2200,
      "é©¶": 2201,
      "æľºåĻ¨äºº": 2202,
      "æķ°éĩı": 2203,
      "èķ´": 2204,
      "éļĲ": 2205,
      "æĥħèĬĤ": 2206,
      "æĦī": 2207,
      "ä¼½": 2208,
      "æľĢåĲİ": 2209,
      "æŃ£ç¡®çļĦ": 2210,
      "å·®": 2211,
      "èĮ¶": 2212,
      "åŁºäºİ": 2213,
      "æ¯ıä¸ªäºº": 2214,
      "å·¦": 2215,
      "æİ¢è®¨": 2216,
      "å±Ģ": 2217,
      "å¤§åŃ¦": 2218,
      "ç¹ģ": 2219,
      "æħ¢": 2220,
      "æĹ¥æľŁ": 2221,
      "åĵªéĩĮ": 2222,
      "åªĴ": 2223,
      "çĳľ": 2224,
      "æ·±åº¦": 2225,
      "æ¸Ĳ": 2226,
      "äººå·¥æĻºèĥ½çļĦ": 2227,
      "çĽĳ": 2228,
      "æĸĩæľ¬è¿Ľè¡Į": 2229,
      "æĦ¿": 2230,
      "ãĢĭãĢģãĢĬ": 2231,
      "å¸Ŀ": 2232,
      "åħ«": 2233,
      "é¡¿": 2234,
      "å¿ĺ": 2235,
      "æĤ¨éľĢè¦ģ": 2236,
      "èĢĮä¸Ķ": 2237,
      "éĶĢåĶ®": 2238,
      "æĬĢèĥ½": 2239,
      "èģļ": 2240,
      "çºłæŃ£": 2241,
      "çĨĬ": 2242,
      "éĢĤå½ĵçļĦ": 2243,
      "çĿ¡çľł": 2244,
      "âĢĶ": 2245,
      "å¥¹çļĦ": 2246,
      "å±Ĥ": 2247,
      "ä¸ªèĭ¹æŀľ": 2248,
      "æķĳ": 2249,
      "ç§ĺ": 2250,
      "è¿ĩåİ»": 2251,
      "æľĢåĸľæ¬¢çļĦ": 2252,
      "æĹ¥æľ¬": 2253,
      "æĪĳä»¬éľĢè¦ģ": 2254,
      "ç»ĵæŀĦ": 2255,
      "æĢ§åĴĮ": 2256,
      "ç³ķ": 2257,
      "åĲĽ": 2258,
      "å¡ĳæĸĻ": 2259,
      "è·ĳæŃ¥": 2260,
      "åĲĪå¹¶": 2261,
      "çĳľä¼½": 2262,
      "æ¯Ĵ": 2263,
      "åħħæ»¡": 2264,
      "50": 2265,
      "ä¸»æĹ¨": 2266,
      "ç¬¦åı·": 2267,
      "æĥ¯": 2268,
      "éŀ": 2269,
      "éľ²": 2270,
      "ç»§": 2271,
      "åĪĹåĩº": 2272,
      "å½ĵåīį": 2273,
      "æĹ§": 2274,
      "æĥħç»ª": 2275,
      "è´¢": 2276,
      "çļĦè¯Ŀ": 2277,
      "å°Ĩä¸ĭéĿ¢": 2278,
      "æł¸": 2279,
      "è´µ": 2280,
      "åĬłåħ¥": 2281,
      "è¯¾": 2282,
      "æ¤įçī©": 2283,
      "çĶľ": 2284,
      "å¿Ļ": 2285,
      "åģľ": 2286,
      "çİĽ": 2287,
      "ä½ľåĵģ": 2288,
      "é«ĺåħ´": 2289,
      "ä¸įåŃĺåľ¨": 2290,
      "çİ°ä»£æĸĩ": 2291,
      "çŃĳ": 2292,
      "ç»ŃåĨĻåı¤è¯Ĺ": 2293,
      "éĻįä½İ": 2294,
      "çĥŁ": 2295,
      "åģ¥åº·çļĦ": 2296,
      "æµ·æ»©": 2297,
      "èĩªçĶ±": 2298,
      "éĴĪ": 2299,
      "èķ´åĲ«": 2300,
      "çıł": 2301,
      "çŁŃæĸĩ": 2302,
      "ç§ĳåŃ¦å®¶": 2303,
      "èŃ¦": 2304,
      "æ¼Ķåĳĺ": 2305,
      "å®«": 2306,
      "éĢĲ": 2307,
      "è°Ī": 2308,
      "æĭ¼åĨĻéĶĻè¯¯": 2309,
      "ä¸įä¼ļ": 2310,
      "åı³": 2311,
      "ä¿ĥ": 2312,
      "ä¼łç»Ł": 2313,
      "åŃ©åŃĲ": 2314,
      "æĭ¿": 2315,
      "ä¸ºæĤ¨æıĲä¾Ľ": 2316,
      "åħ¨çĲĥåıĺæļĸ": 2317,
      "æµ·æ´ĭ": 2318,
      "èª": 2319,
      "è¡Ĺ": 2320,
      "æĿĥ": 2321,
      "éĨĴ": 2322,
      "åºķ": 2323,
      "çĽĽ": 2324,
      "å¤§éĩı": 2325,
      "æłĩçĤ¹": 2326,
      "å°ıæĹ¶": 2327,
      "æģ¶": 2328,
      "ç§ĳå¹»": 2329,
      "éĻĦ": 2330,
      "èĻļ": 2331,
      "é»İ": 2332,
      "åģĩè®¾": 2333,
      "çģ¾": 2334,
      "è·Ł": 2335,
      "è°·": 2336,
      "ç¿»è¯ĳæĪĲæĸĩè¨Ģæĸĩ": 2337,
      "æĸĩæ¡Ī": 2338,
      "ç±»åĪ«": 2339,
      "èĳĹåĲįçļĦ": 2340,
      "çļĦä¸»è¦ģè§ĤçĤ¹": 2341,
      "ç»ĥä¹ł": 2342,
      "éĢłæĪĲ": 2343,
      "è¶³çĲĥ": 2344,
      "å¥ĸ": 2345,
      "ä¹°äºĨ": 2346,
      "ç¿»è¯ĳæĪĲçİ°ä»£æĸĩ": 2347,
      "çº³": 2348,
      "æĦŁè°¢": 2349,
      "åªĴä½ĵ": 2350,
      "åħ±åĲĮ": 2351,
      "åī©": 2352,
      "åĸ»": 2353,
      "é¢Ĺ": 2354,
      "çĽ¸ä¼¼": 2355,
      "å¹´è½»": 2356,
      "çĤİ": 2357,
      "è¸": 2358,
      "å®ĩ": 2359,
      "ä¹łæĥ¯": 2360,
      "çĽĸ": 2361,
      "ç§Ģ": 2362,
      "å·¥åħ·": 2363,
      "è¡ĮæĺŁ": 2364,
      "æĢĿèĢĥ": 2365,
      "è¿ĻéĩĮ": 2366,
      "åĬłå¼º": 2367,
      "åĶ±": 2368,
      "åĪĽæĸ°": 2369,
      "æĺĵäºİçĲĨè§£": 2370,
      "åį±": 2371,
      "æł¹æį®ç»Ļå®ļçļĦæĸĩæľ¬": 2372,
      "åģı": 2373,
      "è¯·ç»ĻæĪĳ": 2374,
      "å°ģ": 2375,
      "è¿·": 2376,
      "åĪĽä½ľ": 2377,
      "å¯¹è¯Ŀ": 2378,
      "ç±į": 2379,
      "èģĬå¤©": 2380,
      "ç»ıåİĨ": 2381,
      "æĢ»ç»Ł": 2382,
      "ä¹¡": 2383,
      "æ²ī": 2384,
      "æī§": 2385,
      "è±Ĩ": 2386,
      "æĦıå¤§åĪ©": 2387,
      "çī¹çĤ¹": 2388,
      "å®ł": 2389,
      "æĿĲæĸĻ": 2390,
      "æľīä¸Ģä¸ª": 2391,
      "æĦıè¯Ĩ": 2392,
      "è®¢": 2393,
      "ï¼ŁâĢĿ": 2394,
      "æ°ı": 2395,
      "ä¸įåŃĺåľ¨å®ŀä½ĵ": 2396,
      "ä½Ļ": 2397,
      "åĨ¥": 2398,
      "çļĦè¯Ńè¨Ģ": 2399,
      "è·Ŀ": 2400,
      "åįı": 2401,
      "å¤©æ°Ķé¢ĦæĬ¥": 2402,
      "è¿Ļæľ¬ä¹¦": 2403,
      "æ°¸": 2404,
      "éĤ£éĩĮ": 2405,
      "çļĦä¸»é¢ĺ": 2406,
      "å®¢æĪ·": 2407,
      "è®©äºº": 2408,
      "åĶĲ": 2409,
      "èģĶç½ĳ": 2410,
      "æĸ°éĹ»æĬ¥éģĵ": 2411,
      "å»ºçŃĳ": 2412,
      "ä½¿åħ¶æĽ´åĬłç®Ģæ´ģæĺİäºĨ": 2413,
      "ä»İè¿Ļç¯ĩæĸĩç«łä¸ŃæıĲåıĸåĩº": 2414,
      "æļ´": 2415,
      "å®ľ": 2416,
      "å¼Ģåıĳ": 2417,
      "è®ºæĸĩ": 2418,
      "ä½¿å¾Ĺ": 2419,
      "å²Ľ": 2420,
      "ä¸ľè¥¿": 2421,
      "çī©åĵģ": 2422,
      "åĽłç´ł": 2423,
      "åĢ¼å¾Ĺ": 2424,
      "å¾ĪæĬ±æŃī": 2425,
      "æĺ¯åľ¨": 2426,
      "å®¹æĺĵ": 2427,
      "ç§ģ": 2428,
      "çļĦéĩįè¦ģæĢ§": 2429,
      "ç¢³": 2430,
      "åıĹæ¬¢è¿İ": 2431,
      "æľīåĵªäºĽ": 2432,
      "åħ±æľī": 2433,
      "èģĮä¸ļ": 2434,
      "æ£®": 2435,
      "ç¾İä¸½çļĦ": 2436,
      "è¯·ä¸º": 2437,
      "æĿĳ": 2438,
      "è·³": 2439,
      "çļĦæķħäºĭ": 2440,
      "æĺĵæĩĤ": 2441,
      "å»ºè®®æĤ¨": 2442,
      "æĪ·å¤ĸ": 2443,
      "çĹĽ": 2444,
      "é£ĺ": 2445,
      "æģĲ": 2446,
      "æĬ«": 2447,
      "åīįæıĲ": 2448,
      "å¿Ĩ": 2449,
      "æľĢé«ĺçļĦ": 2450,
      "çļĦå¥½": 2451,
      "ä»£è¡¨": 2452,
      "ç¥Ŀ": 2453,
      "æĭħ": 2454,
      "è¯Ħä»·": 2455,
      "æ¶ī": 2456,
      "ä¸Ģæ®µæĸĩæľ¬": 2457,
      "æľĢå¤§çļĦ": 2458,
      "åŃĹæ¯į": 2459,
      "æĺ¯ä»Ģä¹ĪæĦıæĢĿ": 2460,
      "ä¼´": 2461,
      "èĤ¡": 2462,
      "å°Ħ": 2463,
      "å¹´çļĦ": 2464,
      "æŃ¦": 2465,
      "æłĩçĤ¹ç¬¦åı·": 2466,
      "ä»ĺ": 2467,
      "åıįä¹īè¯į": 2468,
      "ä»¥ä¸ĭæĺ¯": 2469,
      "æī¾åĩº": 2470,
      "æĪĳæĺ¨å¤©": 2471,
      "çİ¯å¢ĥä¿ĿæĬ¤": 2472,
      "ç«¯": 2473,
      "æľīä¸Ģ": 2474,
      "æĢĢ": 2475,
      "æľīäºĽ": 2476,
      "ä¸ĭæĿ¥": 2477,
      "èģĶç³»": 2478,
      "çĮ®": 2479,
      "ä¸Ĭæĸĩ": 2480,
      "ä¹ĺ": 2481,
      "å®Ī": 2482,
      "çģ¯": 2483,
      "è¡Ģ": 2484,
      "é©¾é©¶": 2485,
      "å¤ıåŃ£": 2486,
      "ä½Ĩä»ĸ": 2487,
      "åľ¨è¿Ļä¸ª": 2488,
      "å¤©ç©º": 2489,
      "è¯ŃéŁ³": 2490,
      "çļĦå¤©æ°Ķé¢ĦæĬ¥": 2491,
      "è¡£æľį": 2492,
      "æľºä¼ļ": 2493,
      "å¤įæĿĤ": 2494,
      "æĬĺ": 2495,
      "åĨĴ": 2496,
      "åħĭåĬĽ": 2497,
      "èķī": 2498,
      "åºĬ": 2499,
      "åĲĪéĢĤçļĦ": 2500,
      "æ¼Ĥ": 2501,
      "çļĦæĹ¶åĢĻ": 2502,
      "çļĦæľĢ": 2503,
      "å·§åħĭåĬĽ": 2504,
      "æĺŁæľŁ": 2505,
      "è®¾å¤ĩ": 2506,
      "éŀĭ": 2507,
      "ä¸°å¯Į": 2508,
      "GP": 2509,
      "æ°§": 2510,
      "åĢĭ": 2511,
      "çĥĪ": 2512,
      "åİŁåı¥": 2513,
      "ä»·åĢ¼": 2514,
      "éĿŀå¸¸å¥½": 2515,
      "åĭĩ": 2516,
      "é¢Ŀ": 2517,
      "èµı": 2518,
      "ä¸įè¿ĩ": 2519,
      "å¸¸è§ģ": 2520,
      "å·´é»İ": 2521,
      "ç»ıåħ¸": 2522,
      "ä¸ĭéĽ¨": 2523,
      "éĿ©": 2524,
      "åĿı": 2525,
      "åºŁ": 2526,
      "æİ¨èįĲä¸Ģ": 2527,
      "éªĳ": 2528,
      "å¿«éĢŁ": 2529,
      "ä¸ĢæŃ¥": 2530,
      "å¡Ķ": 2531,
      "æ¯Ķåĸ»": 2532,
      "æĺł": 2533,
      "æĺ¯æĮĩ": 2534,
      "ä¸Ģåı¥": 2535,
      "åĺ": 2536,
      "æ´¾": 2537,
      "æĿ¡ä»¶": 2538,
      "æľīåĬ©": 2539,
      "è®¿": 2540,
      "æĸĩæľ¬éĶĻè¯¯": 2541,
      "æĽ´å¥½çļĦ": 2542,
      "æµģè¡Į": 2543,
      "æ³°": 2544,
      "åı£åĳ³": 2545,
      "æīĢåľ¨": 2546,
      "çŃīæĸ¹éĿ¢": 2547,
      "åĨĻè¯Ĺ": 2548,
      "åĬ¨è¯į": 2549,
      "GPT": 2550,
      "æŁĶ": 2551,
      "æµĭè¯ķ": 2552,
      "å½¢å®¹è¯į": 2553,
      "ä¸¥éĩį": 2554,
      "åĲ¹": 2555,
      "çļĦå°ı": 2556,
      "äººçī©": 2557,
      "å®ŀä½ĵè¯ĨåĪ«": 2558,
      "æ´Ĺ": 2559,
      "é¦Ļèķī": 2560,
      "è¶ħå¸Ĥ": 2561,
      "æ¬²": 2562,
      "åħµ": 2563,
      "ç»¿èī²": 2564,
      "ç»ıéªĮ": 2565,
      "å®łçī©": 2566,
      "éģĹ": 2567,
      "ä»ĸåľ¨": 2568,
      "åĹ": 2569,
      "åľ°æĸ¹": 2570,
      "è¿Ļé¦ĸ": 2571,
      "æĸ¹åĲĳ": 2572,
      "æĶ¿çŃĸ": 2573,
      "ç§»": 2574,
      "éĢŁåº¦": 2575,
      "éĥ½æľī": 2576,
      "åģļåĩº": 2577,
      "ä»İèĢĮ": 2578,
      "åĨ¥æĥ³": 2579,
      "çīĽå¥¶": 2580,
      "åĬ³": 2581,
      "èĪ¬": 2582,
      "å¼łä¸ī": 2583,
      "è¢ĭ": 2584,
      "çļĦåľ°æĸ¹": 2585,
      "çļĦåĲ«ä¹ī": 2586,
      "ä¸įåı¯": 2587,
      "çĪ¶": 2588,
      "å¼ºè°ĥ": 2589,
      "éĽħ": 2590,
      "åķĬ": 2591,
      "æľªæĿ¥çļĦ": 2592,
      "æ·±åº¦åŃ¦ä¹ł": 2593,
      "æĿ¿": 2594,
      "Ġåħ¶": 2595,
      "çĶŁæĪĲä¸Ģé¦ĸ": 2596,
      "æľīåĬ©äºİ": 2597,
      "åĬ±": 2598,
      "åĽ½éĻħ": 2599,
      "è¡¨æĺİ": 2600,
      "ä¸Ģä½į": 2601,
      "è½¯ä»¶": 2602,
      "åĮ»çĸĹé¢ĨåŁŁ": 2603,
      "å»ºç«ĭ": 2604,
      "çĬ¶åĨµ": 2605,
      "ç¯®": 2606,
      "ä½ĨæĪĳ": 2607,
      "éļıæĹ¶": 2608,
      "å®ļä¹ī": 2609,
      "é¼ĵ": 2610,
      "çļĦé£Łçī©": 2611,
      "æ°´å¹³": 2612,
      "åĿ¦": 2613,
      "äººç±»çļĦ": 2614,
      "åŃ£èĬĤ": 2615,
      "å¥ĭ": 2616,
      "æĺ¯çļĦ": 2617,
      "æ±ł": 2618,
      "çī¹å¾ģ": 2619,
      "åģ¥åº·é¥®é£Ł": 2620,
      "æ¨¡ä»¿": 2621,
      "èĭı": 2622,
      "åĿļæĮģ": 2623,
      "è·Ŀç¦»": 2624,
      "ç»Ļå®ļçļĦåı¥åŃĲ": 2625,
      "æ¾": 2626,
      "æĸĩä¸Ń": 2627,
      "éģį": 2628,
      "éĹ²": 2629,
      "ä¸ªåŃĹ": 2630,
      "çŃ¾": 2631,
      "æĸĩåŃ¦": 2632,
      "æµĵ": 2633,
      "è¿ĺåı¯ä»¥": 2634,
      "çļĦåĨħå®¹": 2635,
      "çļĦæĸ°": 2636,
      "è¿Ķ": 2637,
      "çĭ¬çī¹": 2638,
      "ç»§ç»Ń": 2639,
      "åı¦å¤ĸ": 2640,
      "åĽ¾åĥı": 2641,
      "çī¹å®ļ": 2642,
      "èĭ¦": 2643,
      "æľĢæĸ°çļĦ": 2644,
      "æĴŃ": 2645,
      "ç¼ĸè¾ĳä»¥ä¸ĭåı¥åŃĲ": 2646,
      "å°Ĩä¼ļ": 2647,
      "éĢĶ": 2648,
      "çªĹ": 2649,
      "ä¸Ģæł·": 2650,
      "è¡¨è¾¾äºĨ": 2651,
      "åĨĻä½ľ": 2652,
      "éĩįçĤ¹": 2653,
      "ä¸įè¦ģ": 2654,
      "æĲŃ": 2655,
      "è´§": 2656,
      "æ©ĻåŃĲ": 2657,
      "ç²ī": 2658,
      "æī¿": 2659,
      "èĲ¥åħ»": 2660,
      "é¡¾": 2661,
      "æĪĳæĥ³çŁ¥éģĵ": 2662,
      "å°Ĩä»¥ä¸ĭæĸĩæľ¬": 2663,
      "å±±å³°": 2664,
      "æ¦Ĥå¿µ": 2665,
      "åĪł": 2666,
      "èĮĥåĽ´": 2667,
      "éķ¿åº¦": 2668,
      "äº¤æµģ": 2669,
      "åĪĽå»ºä¸Ģä¸ª": 2670,
      "éº¦": 2671,
      "ä¹³": 2672,
      "å´": 2673,
      "å§Ĩ": 2674,
      "åĽ°éļ¾": 2675,
      "ç¿°": 2676,
      "è¿Ļç¯ĩæĸĩç«łä¸Ń": 2677,
      "åħ¬åĽŃéĩĮ": 2678,
      "èİ«": 2679,
      "çĸ«æĥħ": 2680,
      "å®ĥä»¬çļĦ": 2681,
      "åĪ¶å®ļ": 2682,
      "ä»£çłģ": 2683,
      "ä¹¦ç±į": 2684,
      "ä¸ĭéĿ¢çļĦåı¥åŃĲ": 2685,
      "æľĢå¥½çļĦ": 2686,
      "çļĦæĳĺè¦ģ": 2687,
      "å¥Ĺ": 2688,
      "åºĶçĶ¨ç¨ĭåºı": 2689,
      "åĪ«åŃĹ": 2690,
      "ä¾ĭåŃĲ": 2691,
      "èĥ½åĲ¦": 2692,
      "éĶĻåĪ«åŃĹ": 2693,
      "çĶ°": 2694,
      "çīĻ": 2695,
      "æ½ľ": 2696,
      "èĭ¥": 2697,
      "èģª": 2698,
      "ç»Ļå®ļçļĦæĸĩæľ¬": 2699,
      "äºĭå®ŀ": 2700,
      "åĽłä¸ºå®ĥ": 2701,
      "åı¤ä»£": 2702,
      "åĲİçļĦ": 2703,
      "æĤ²": 2704,
      "ä½łå¥½": 2705,
      "å°ıæĺİæľī": 2706,
      "éĺ´": 2707,
      "æĿĢ": 2708,
      "æĪĳä»Ĭå¤©": 2709,
      "ä¸ĭåįĪ": 2710,
      "ä¸ĢåĲį": 2711,
      "ç¬ĳè¯Ŀ": 2712,
      "ãĢĤ\"<|": 2713,
      "ç«ŀ": 2714,
      "éĴĪå¯¹": 2715,
      "åıªæľī": 2716,
      "è¯·çĶ¨": 2717,
      "çľŁçļĦ": 2718,
      "å¤ļä¸ª": 2719,
      "åĩıè½»": 2720,
      "å¹¶æıĲä¾Ľ": 2721,
      "ä¹İ": 2722,
      "æĥ³æ³ķ": 2723,
      "æĪĳå°Ĩ": 2724,
      "ä¸Ģå®ļ": 2725,
      "èĹı": 2726,
      "å¼ĢæĶ¾": 2727,
      "åľĨ": 2728,
      "å¯¿": 2729,
      "æ¬£": 2730,
      "ä»Ĭå¤©å¤©æ°Ķ": 2731,
      "ç¤¾äº¤åªĴä½ĵ": 2732,
      "çļĦçŃĶæ¡Ī": 2733,
      "éĸ": 2734,
      "æ¶Īæŀģ": 2735,
      "èĩªè¡Į": 2736,
      "éĽ¶": 2737,
      "æĬ«èĲ¨": 2738,
      "çĶŁæ´»æĸ¹å¼ı": 2739,
      "è¾Ĩ": 2740,
      "ä¸Ĭä¸ĭæĸĩ": 2741,
      "é½": 2742,
      "æļĹ": 2743,
      "ç±»ä¼¼": 2744,
      "å¢ŀéķ¿": 2745,
      "éĤ£ä¸ª": 2746,
      "ä¸Ŀ": 2747,
      "å°½åĬĽ": 2748,
      "åĪĺ": 2749,
      "æ´ŀ": 2750,
      "Ġ-": 2751,
      "è¿Ļå®¶é¤Ĳåİħ": 2752,
      "åĪº": 2753,
      "æĿ¥è¯´": 2754,
      "åĵ¥": 2755,
      "æĵį": 2756,
      "çļĩ": 2757,
      "è©": 2758,
      "ãĢĤ'": 2759,
      "å¤ªç©º": 2760,
      "çĶŁæĹ¥": 2761,
      "ä¹ĭåīį": 2762,
      "ä¿Ŀåģ¥": 2763,
      "è´£ä»»": 2764,
      "çļĦæĥħæĦŁ": 2765,
      "éļıçĿĢ": 2766,
      "å¯Ł": 2767,
      "åıĸå¾Ĺ": 2768,
      "äºĴèģĶç½ĳ": 2769,
      "æĤ¦": 2770,
      "åĩºæĿ¥": 2771,
      "ç¡Ģ": 2772,
      "ç¬¦åĲĪ": 2773,
      "åłĤ": 2774,
      "å¹¸ç¦ı": 2775,
      "éĻĦè¿ĳ": 2776,
      "è´¥": 2777,
      "åĸľæ¬¢åĲĥ": 2778,
      "åŁºç¡Ģ": 2779,
      "ä¿ĿæĬ¤çİ¯å¢ĥ": 2780,
      "åºĶå¯¹": 2781,
      "å¢ŀå¼º": 2782,
      "èĨ": 2783,
      "åĪĨäº«": 2784,
      "æİ¨çĲĨåħ³ç³»": 2785,
      "ä¸Ńç«ĭçŃĶæ¡Ī": 2786,
      "æİ¨çĲĨåħ³ç³»åĪ¤æĸŃ": 2787,
      "çĸ²": 2788,
      "çļĦè¯Ń": 2789,
      "å¾Ħ": 2790,
      "ä¿ĥè¿Ľ": 2791,
      "æ¶īåıĬ": 2792,
      "çĬ¬": 2793,
      "è®©æĪĳä»¬": 2794,
      "ä¸Ĭè¿°": 2795,
      "æĬķèµĦ": 2796,
      "åīįå¾Ģ": 2797,
      "ç«¥": 2798,
      "èĢĥè¯ķ": 2799,
      "å°Ĩå®ĥä»¬": 2800,
      "åŁºæľ¬": 2801,
      "éĵħ": 2802,
      "éŁµ": 2803,
      "å®ģ": 2804,
      "åĢĴ": 2805,
      "å®Ļ": 2806,
      "èį¯çī©": 2807,
      "èĭ±æĸĩ": 2808,
      "ä¸įä»ħ": 2809,
      "æŀĿ": 2810,
      "æĮĩåĩº": 2811,
      "æĳĦåħ¥": 2812,
      "äººåĳĺ": 2813,
      "éĢı": 2814,
      "å°Ĭ": 2815,
      "èĥĮæĻ¯": 2816,
      "ä¸Ģä¸ªåı¥åŃĲ": 2817,
      "ç´¯": 2818,
      "å¹¿åĳĬ": 2819,
      "202": 2820,
      "èģªæĺİ": 2821,
      "æĽ¿æį¢ä¸º": 2822,
      "æĹı": 2823,
      "å·Ŀ": 2824,
      "ï¼ļ\"": 2825,
      "æİī": 2826,
      "çº¢èī²": 2827,
      "äº¡": 2828,
      "æĢ¥": 2829,
      "30": 2830,
      "åĪłéĻ¤": 2831,
      "åĪĨåĪ«": 2832,
      "å®ĩå®Ļ": 2833,
      "å¼ĥ": 2834,
      "å¼ķèµ·": 2835,
      "åĲĪä½ľ": 2836,
      "ç³»åĪĹ": 2837,
      "æ´Ľ": 2838,
      "æĮĩå®ļ": 2839,
      "åıĹåĪ°": 2840,
      "âĢĿãĢĤ<|": 2841,
      "å¥½çľĭ": 2842,
      "å®Įæķ´": 2843,
      "åıĤä¸İ": 2844,
      "æĸĹ": 2845,
      "æŁ¥æī¾": 2846,
      "åľ£": 2847,
      "åı¯çĪ±": 2848,
      "å·¦åı³": 2849,
      "ä¸įè¶ħè¿ĩ": 2850,
      "æ¼Ĥäº®": 2851,
      "éĿ¢åĮħ": 2852,
      "è¿Ł": 2853,
      "ç¼©": 2854,
      "éĿ¢ä¸´": 2855,
      "éķĩ": 2856,
      "æĶ»": 2857,
      "å¹³è¡¡": 2858,
      "çĬ¯": 2859,
      "çī©è´¨": 2860,
      "éĹŃ": 2861,
      "çº¸": 2862,
      "éŁ©": 2863,
      "æİĮ": 2864,
      "å®Ĺ": 2865,
      "ä¸»è¦ģè§ĤçĤ¹": 2866,
      "çŃīé¢ĨåŁŁ": 2867,
      "æ¸©æļĸ": 2868,
      "ç®Ģæ´ģæĺİäºĨ": 2869,
      "çº¦ç¿°": 2870,
      "çļĦæĹ¶éĹ´": 2871,
      "æĽ´æŃ£": 2872,
      "çĬ¹": 2873,
      "æ»ĳ": 2874,
      "åŃ¤çĭ¬": 2875,
      "ç®ĢåįķçļĦ": 2876,
      "éĵ¾": 2877,
      "åľ¨çº¿": 2878,
      "çĥ§": 2879,
      "åħ³éĶ®åŃĹ": 2880,
      "ä¸Ģå®¶": 2881,
      "è¯·å¯¹": 2882,
      "å®ŀéĻħ": 2883,
      "åĨ³çŃĸ": 2884,
      "ç»©": 2885,
      "æĶ¹ä¸º": 2886,
      "éĵħç¬Ķ": 2887,
      "æĶ¹è¿Ľ": 2888,
      "ç»ĨèĬĤ": 2889,
      "æĻ¨": 2890,
      "è§Ĵèī²": 2891,
      "è¶³å¤Ł": 2892,
      "å¤ļç§į": 2893,
      "æ³ķå¾ĭ": 2894,
      "åį·": 2895,
      "åı¯ä»¥éĢļè¿ĩ": 2896,
      "é¡ºåºı": 2897,
      "è®¨è®ºäºĨ": 2898,
      "åĲĪçĲĨ": 2899,
      "è½¬æį¢ä¸º": 2900,
      "å¹ħ": 2901,
      "æĶ¹æŃ£": 2902,
      "æ±¤": 2903,
      "åıĳå¸ĥ": 2904,
      "ç¾İå¥½": 2905,
      "å¡«": 2906,
      "è²": 2907,
      "åĳ³éģĵ": 2908,
      "åĴĮä¸Ģä¸ª": 2909,
      "çĪ±å¥½": 2910,
      "ç»ĦæĪĲ": 2911,
      "çĹĩçĬ¶": 2912,
      "æķĪæŀľ": 2913,
      "åĵ¦": 2914,
      "æ¹¿": 2915,
      "èİĵ": 2916,
      "æĹ©é¤Ĳ": 2917,
      "åıĸæ¶Ī": 2918,
      "åĲ¯": 2919,
      "éľľ": 2920,
      "è°±": 2921,
      "åĩºèī²": 2922,
      "ç£": 2923,
      "çĽ®çļĦåľ°": 2924,
      "å¿ĥæĥħ": 2925,
      "æĹ¥å¸¸": 2926,
      "çĹħæ¯Ĵ": 2927,
      "è¿Ľè¡Įæĳĺè¦ģ": 2928,
      "åįģåĪĨ": 2929,
      "ä¸ĢæĿ¡": 2930,
      "ç®Ģè¦ģ": 2931,
      "é¤Ĳé¦Ĩ": 2932,
      "ä¸Ĭåįĩ": 2933,
      "åĴ¨": 2934,
      "æ»¡è¶³": 2935,
      "æĤ¬": 2936,
      "èĩªæĪĳ": 2937,
      "çļĦæĸ¹å¼ı": 2938,
      "æľºæŀĦ": 2939,
      "åºĨ": 2940,
      "çļĦåŁİå¸Ĥ": 2941,
      "äººçĶŁ": 2942,
      "åĽ¢éĺŁ": 2943,
      "æ¶¦": 2944,
      "æĸĩæľ¬çºłéĶĻ": 2945,
      "æľĢè¿ĳçļĦ": 2946,
      "åĬĽåĴĮ": 2947,
      "æ³ķåĽ½": 2948,
      "å¤ªéĺ³ç³»": 2949,
      "¡èĲ": 2950,
      "å¦Ī": 2951,
      "âĢ¦": 2952,
      "åĽŀå®¶": 2953,
      "æĪ¿éĹ´": 2954,
      "åĮ»çĸĹä¿Ŀåģ¥": 2955,
      "åį³åı¯": 2956,
      "æł¹æį®è¾ĵåħ¥": 2957,
      "è¯´æĺİ": 2958,
      "æĺ¾ç¤º": 2959,
      "ä¼ĺç§Ģ": 2960,
      "çĶ³": 2961,
      "åĨĻä¸Ģä¸ªæłĩé¢ĺ": 2962,
      "çļĦéŁ³ä¹Ĳ": 2963,
      "ä¹±": 2964,
      "ç¨³": 2965,
      "æĸ°éĹ»æłĩé¢ĺ": 2966,
      "ç½ª": 2967,
      "ï¼ļ'": 2968,
      "éĿ¢çļĦ": 2969,
      "åĳĺå·¥": 2970,
      "èĢ³": 2971,
      "æĽ°": 2972,
      "å®ŀæĹ¶": 2973,
      "ä¸ĢäºĽåħ³äºİ": 2974,
      "èĤ¯": 2975,
      "æĿ°": 2976,
      "å°Ĩåľ¨": 2977,
      "åĴ¨è¯¢": 2978,
      "å¥ı": 2979,
      "çĴ": 2980,
      "AIè¯Ńè¨Ģæ¨¡åŀĭ": 2981,
      "è¿Ļæĺ¯ä¸Ģç¯ĩ": 2982,
      "åı¯æĮģç»Ńåıĳå±ķ": 2983,
      "ç¯®çĲĥ": 2984,
      "è¿¹": 2985,
      "åĸľå¥½": 2986,
      "å°¾": 2987,
      "å»¶": 2988,
      "12": 2989,
      "çļĦæĦıæĢĿæĺ¯ä»Ģä¹Ī": 2990,
      "æĢĿæĥ³": 2991,
      "æ£®æŀĹ": 2992,
      "æµ®": 2993,
      "èĩªè¡Įè½¦": 2994,
      "æ¢ħ": 2995,
      "çıį": 2996,
      "æĸĩç«łä¸ŃæıĲåĪ°": 2997,
      "åı¯èĥ½æĺ¯": 2998,
      "æ½®": 2999,
      "åĬ¨ä½ľ": 3000,
      "èĦĤ": 3001,
      "èĪĴéĢĤ": 3002,
      "éħ¸": 3003,
      "çĽĺ": 3004,
      "Ġå¥½çļĦ": 3005,
      "æķ¦": 3006,
      "å¯¹æĸĩæľ¬éĶĻè¯¯": 3007,
      "å¯¹æĸĩæľ¬éĶĻè¯¯è¿Ľè¡Į": 3008,
      "å°¤": 3009,
      "åĮĸçļĦ": 3010,
      "æŁĲä¸ª": 3011,
      "èĽĭç³ķ": 3012,
      "æĺ¨æĻļ": 3013,
      "å¹³åĿĩ": 3014,
      "å®¶å±ħ": 3015,
      "è¿ĽæŃ¥": 3016,
      "æ¡¥": 3017,
      "æ·ĭ": 3018,
      "éĻĲåĪ¶": 3019,
      "çº·": 3020,
      "éĩĮçļĦ": 3021,
      "ç¾İåħĥ": 3022,
      "åı¯ä»¥åľ¨": 3023,
      "ç¾İå¥½çļĦ": 3024,
      "éĻĪè¿°": 3025,
      "è¯Ńæ³ķåĴĮ": 3026,
      "ä¸ĢæĿ¯": 3027,
      "æĺ¯ä¸Ģéĥ¨": 3028,
      "éĻĨ": 3029,
      "æĢİä¹Īæł·": 3030,
      "è½½": 3031,
      "åĲĮæĹ¶ä¹Ł": 3032,
      "äº¦": 3033,
      "é¾Ħ": 3034,
      "æĮ¥": 3035,
      "èĭĹ": 3036,
      "åĪĨéĴŁ": 3037,
      "èĵĿèī²": 3038,
      "æ²Ļæ»©": 3039,
      "ç®Ģæĺİ": 3040,
      "æĻ´æľĹ": 3041,
      "æĬĹ": 3042,
      "è¯įè¯Ńæĺ¯ä»Ģä¹ĪæĦıæĢĿ": 3043,
      "èĪ¹": 3044,
      "å§ĵ": 3045,
      "å®¶äºº": 3046,
      "æĦīå¿«": 3047,
      "è¯Ŀé¢ĺ": 3048,
      "æľĢä½³": 3049,
      "è®²è¿°äºĨ": 3050,
      "å¦Ļ": 3051,
      "å°½ç®¡ä»ĸ": 3052,
      "éħ±": 3053,
      "å¹¶ä¸į": 3054,
      "èĭ±åĽ½": 3055,
      "ç»ĻæĪĳä¸Ģä¸ª": 3056,
      "åĬĽéĩı": 3057,
      "å¹½": 3058,
      "å¯Ĥ": 3059,
      "æľĢé«ĺçļĦå±±å³°": 3060,
      "ĠâĢľ": 3061,
      "è§Ĩè§ī": 3062,
      "éŃĶ": 3063,
      "åĪ°è¾¾": 3064,
      "äºĨä¸ĢäºĽ": 3065,
      "ä½Ľ": 3066,
      "GPTæ¨¡åŀĭ": 3067,
      "åİļ": 3068,
      "æĪĳåİ»": 3069,
      "18": 3070,
      "æĥħæĦŁåĪĨæŀĲ": 3071,
      "æģ©": 3072,
      "èĦļ": 3073,
      "çİ°å®ŀ": 3074,
      "å¤ļæł·": 3075,
      "æķ¢": 3076,
      "åĬĽçļĦ": 3077,
      "åĨ²": 3078,
      "çĭĹçļĦ": 3079,
      "çĽ´æİ¥": 3080,
      "å¹¶è¾ĵåĩº": 3081,
      "ä¹ı": 3082,
      "åħ¬åħ±": 3083,
      "æľµ": 3084,
      "æıĲç¤º": 3085,
      "åī©ä¸ĭ": 3086,
      "åĵº": 3087,
      "ä½łéľĢè¦ģ": 3088,
      "æĪĳè®¤ä¸º": 3089,
      "è¿Ļä¸Ģ": 3090,
      "ç»Ļä½ł": 3091,
      "èĢħçļĦ": 3092,
      "æİĴåĪĹ": 3093,
      "éĨī": 3094,
      "è¿Ľä¸ĢæŃ¥": 3095,
      "ãĢĭãĢĤ": 3096,
      "åŁİå¸ĤçļĦ": 3097,
      "è°ĵ": 3098,
      "æł¹æį®ä»¥ä¸ĭæĸĩæľ¬": 3099,
      "çľĭçľĭ": 3100,
      "çĨŁ": 3101,
      "ç®±": 3102,
      "ä¹Ķ": 3103,
      "æĦģ": 3104,
      "éĢĹ": 3105,
      "å¿ħè¦ģ": 3106,
      "è¿ĶåĽŀ": 3107,
      "äºĨå¾Īå¤ļ": 3108,
      "åľ¨å®¶éĩĮ": 3109,
      "èĻİ": 3110,
      "éĿł": 3111,
      "ä¸Ģåħ±æľī": 3112,
      "æĿŁ": 3113,
      "åįļçī©": 3114,
      "åı£æĦŁ": 3115,
      "åī¯": 3116,
      "ç©Ĩ": 3117,
      "åĲī": 3118,
      "æĤł": 3119,
      "èĢĲ": 3120,
      "éľĩ": 3121,
      "æĬĬè¿Ļåı¥è¯Ŀ": 3122,
      "è®©ä½ł": 3123,
      "æİĴåºı": 3124,
      "ä¸ŃåĽ½çļĦ": 3125,
      "ç¥ŀç»ı": 3126,
      "æıĲåıĸä¸Ģä¸ĭ": 3127,
      "èĩ³å°ĳ": 3128,
      "çĵľ": 3129,
      "æīĢæľīçļĦå®ŀä½ĵ": 3130,
      "æı¡": 3131,
      "é¼ł": 3132,
      "å¸®æĪĳæĥ³": 3133,
      "è¾£": 3134,
      "åŁ¹": 3135,
      "æł¹æį®æıĲä¾Ľ": 3136,
      "æĬ½åıĸåĩºæĸĩä¸Ń": 3137,
      "æĬ½åıĸåĩºæĸĩä¸ŃæīĢæľīçļĦå®ŀä½ĵ": 3138,
      "æľĢæĸ°": 3139,
      "éĩĩçĶ¨": 3140,
      "åĲ¬èµ·æĿ¥": 3141,
      "æĸ¹éĿ¢çļĦ": 3142,
      "çĽ¸åºĶ": 3143,
      "å®¾": 3144,
      "äº¿": 3145,
      "æī§è¡Į": 3146,
      "åĢŁ": 3147,
      "ãĢĭï¼Į": 3148,
      "çµ": 3149,
      "æľīæ²¡æľī": 3150,
      "åħĥç´ł": 3151,
      "æŁ¥çľĭ": 3152,
      "ä¸Ģæ®µæĸĩåŃĹ": 3153,
      "æ¡Į": 3154,
      "éª¨": 3155,
      "ä¸ºä»¥ä¸ĭ": 3156,
      "åĨįçĶŁ": 3157,
      "æĭĤ": 3158,
      "ä¸ºä½ł": 3159,
      "èµ¢": 3160,
      "åİŁå§ĭæĸĩæľ¬": 3161,
      "éķ¿çļĦ": 3162,
      "åĵºä¹³": 3163,
      "åĢ¾": 3164,
      "åł¡": 3165,
      "æķ´ä¸ª": 3166,
      "æł¸å¿ĥ": 3167,
      "è¡¥": 3168,
      "ç´«": 3169,
      "åĨĻçļĦ": 3170,
      "æī©": 3171,
      "æĺ¯ä¸Ģä½į": 3172,
      "å¿§": 3173,
      "åİŁæĸĩ": 3174,
      "éĢĢ": 3175,
      "ä»¥ä¸ĭæĺ¯ä¸Ģ": 3176,
      "åľ°åĲį": 3177,
      "äºĶä¸ª": 3178,
      "åķĨä¸ļ": 3179,
      "åĢĳ": 3180,
      "çĩķ": 3181,
      "çİ¯å¢ĥæ±¡æŁĵ": 3182,
      "èī¯å¥½çļĦ": 3183,
      "æĭĽ": 3184,
      "èĤ¥": 3185,
      "çĩĥ": 3186,
      "ç¥ŀç§ĺ": 3187,
      "å®Įåħ¨": 3188,
      "ä¿®æŃ£": 3189,
      "åİ¿": 3190,
      "ç»ķ": 3191,
      "äººæ°ĳ": 3192,
      "åĵģç§į": 3193,
      "çĶµåŃĲéĤ®ä»¶": 3194,
      "è´Ŀ": 3195,
      "æ°Ķä½ĵ": 3196,
      "ä¼°": 3197,
      "æıĲåįĩ": 3198,
      "ä»Ĭå¹´": 3199,
      "é¸¡èĽĭ": 3200,
      "è´¡": 3201,
      "çĶµè¯Ŀ": 3202,
      "åĽŀæĶ¶": 3203,
      "çļĦäºĭæĥħ": 3204,
      "åĪ¶éĢł": 3205,
      "è¯¸": 3206,
      "æĺ¯å¤ļå°ĳ": 3207,
      "ç«¹": 3208,
      "çĤº": 3209,
      "å¡ŀ": 3210,
      "é¥¼": 3211,
      "æĿ¥èĩª": 3212,
      "è¿ĺæľīåħ¶ä»ĸ": 3213,
      "15": 3214,
      "æİ¨åĩº": 3215,
      "å«": 3216,
      "ä¼ĺçĤ¹": 3217,
      "çĻĮ": 3218,
      "æĥł": 3219,
      "ä»Ĭå¤©çļĦå¤©æ°Ķ": 3220,
      "ä¸¾è¡Į": 3221,
      "éĽ·": 3222,
      "ä¹°äºĨä¸Ģ": 3223,
      "åºĵ": 3224,
      "å¹¶æ²¡æľī": 3225,
      "å·¥ç¨ĭ": 3226,
      "è¿Ľè¡ĮæĶ¹åĨĻ": 3227,
      "å²¸": 3228,
      "çīĪæľ¬": 3229,
      "è¾¾åĪ°": 3230,
      "è¯¢éĹ®": 3231,
      "æ¥ļ": 3232,
      "æĳĦæ°ı": 3233,
      "éº»": 3234,
      "é£İæĻ¯": 3235,
      "æĭĶ": 3236,
      "é»ĺ": 3237,
      "åĽŀçŃĶéĹ®é¢ĺ": 3238,
      "å¹³åı°": 3239,
      "çĶŁæĢģç³»ç»Ł": 3240,
      "å®ĥæĺ¯": 3241,
      "ä»Ļ": 3242,
      "è§£åĨ³æĸ¹æ¡Ī": 3243,
      "ç§ĭå¤©": 3244,
      "è°ĥæŁ¥": 3245,
      "çļĦå¤§": 3246,
      "æł¹æį®æıĲä¾ĽçļĦ": 3247,
      "éĥ½ä¼ļ": 3248,
      "é¢Ħéĺ²": 3249,
      "çĬ¶æĢģ": 3250,
      "ä½ĵèĤ²": 3251,
      "èĬĤçº¦": 3252,
      "èļ": 3253,
      "ä¹Łå¾Ī": 3254,
      "æİ¨å¹¿": 3255,
      "æĶ¹åĨĻä¸º": 3256,
      "ä½ľä¸ºä¸Ģä¸ª": 3257,
      "æ¢¦æĥ³": 3258,
      "éĢĹåı·": 3259,
      "å¤§å®¶": 3260,
      "é¸£": 3261,
      "æľīçĤ¹": 3262,
      "åĵªç§į": 3263,
      "æĪĳæŃ£åľ¨": 3264,
      "å¸ģ": 3265,
      "æµªæ¼«": 3266,
      "æľīæīĢ": 3267,
      "âĦ": 3268,
      "çļĦå°ıè¯´": 3269,
      "èµŀ": 3270,
      "åĲĥäºĨ": 3271,
      "è¯ŃæĢģ": 3272,
      "é¥°": 3273,
      "âĦĥ": 3274,
      "ç»Ļå®ļä¸Ģä¸ªåı¥åŃĲ": 3275,
      "ä¼Ĭ": 3276,
      "è¯·ä»İ": 3277,
      "éļĲç§ģ": 3278,
      "ä¸įå¥½": 3279,
      "æĭį": 3280,
      "æł·çļĦ": 3281,
      "å¸®æĤ¨": 3282,
      "æĶ¹åĨĻæĪĲ": 3283,
      "æĪĳéĿŀå¸¸": 3284,
      "æĺİç¡®": 3285,
      "è¯ļ": 3286,
      "åįļçī©é¦Ĩ": 3287,
      "æ²Ł": 3288,
      "èį£": 3289,
      "å®īæİĴ": 3290,
      "å¹¶åľ¨": 3291,
      "ä¸ŃçļĦå®ŀä½ĵ": 3292,
      "åĲİçļĦåı¥åŃĲ": 3293,
      "èĩªåĬ¨é©¾é©¶": 3294,
      "è¿Ļæ®µæĸĩæľ¬": 3295,
      "ç§įç±»": 3296,
      "åªļ": 3297,
      "æ¦": 3298,
      "é«ĺæķĪ": 3299,
      "æķ°æį®éĽĨ": 3300,
      "å±ĭ": 3301,
      "ä»¥ä¸Ĭ": 3302,
      "æįŁ": 3303,
      "åĵºä¹³åĬ¨çī©": 3304,
      "èº«ä½ĵåģ¥åº·": 3305,
      "å¹ķ": 3306,
      "å£®": 3307,
      "èĬ±åĽŃ": 3308,
      "ç©ºéĹ´": 3309,
      "éĩįå¤į": 3310,
      "å½¢æĪĲ": 3311,
      "åĽ¾ä¹¦": 3312,
      "å°ĺ": 3313,
      "åı¹": 3314,
      "é«ĺçļĦ": 3315,
      "èĢģå¸Ī": 3316,
      "å®½": 3317,
      "ç²¾ç¥ŀ": 3318,
      "èĲ¥éĶĢ": 3319,
      "è¯¾ç¨ĭ": 3320,
      "å¿ł": 3321,
      "æĦŁåħ´è¶£": 3322,
      "éĽĦ": 3323,
      "ä¸Ģä¸ªäºº": 3324,
      "æİ¢è®¨äºĨ": 3325,
      "ç»ĺ": 3326,
      "çĺ": 3327,
      "ä¸įçŁ¥éģĵ": 3328,
      "åĬ¨è¯ŃæĢģ": 3329,
      "éĿŀå¸¸æĦŁè°¢": 3330,
      "å°į": 3331,
      "çľĭèµ·æĿ¥": 3332,
      "éĢ»": 3333,
      "æľīçĿĢ": 3334,
      "æĸ°éĹ»æĸĩç«ł": 3335,
      "æµ·è¾¹": 3336,
      "éĹ®é¢ĺçļĦ": 3337,
      "åİ»åħ¬åĽŃ": 3338,
      "è¿ª": 3339,
      "åŀĥåľ¾åĪĨç±»": 3340,
      "èĬ³": 3341,
      "æĹ¢": 3342,
      "æ®ĭ": 3343,
      "æıĲä¾Ľä¸ĢäºĽ": 3344,
      "åĶ¯": 3345,
      "çļĦæĬĢæľ¯": 3346,
      "æĪĳä»¬åºĶè¯¥": 3347,
      "è§Ī": 3348,
      "çļĦè¯ĹæŃĮ": 3349,
      "åº¦åģĩ": 3350,
      "è¾ŀ": 3351,
      "äººä»¬çļĦ": 3352,
      "å¯»æ±Ĥ": 3353,
      "è¹": 3354,
      "å§Ķ": 3355,
      "è¿Ļé¡¹": 3356,
      "æĵįä½ľ": 3357,
      "ä¸ĢèĪ¬": 3358,
      "çĲ´": 3359,
      "è¯ķè¯ķ": 3360,
      "ä»Ĭå¤©çļĦ": 3361,
      "èĦī": 3362,
      "æĪĳåİ»äºĨ": 3363,
      "æ·¡": 3364,
      "éĥģ": 3365,
      "æĭľ": 3366,
      "çļĦåĲįç§°": 3367,
      "ä¼¦æķ¦": 3368,
      "±ä¹Ĳ": 3369,
      "ä¸ĭåĪĹåı¥åŃĲ": 3370,
      "çĪ¬": 3371,
      "éĹ®åı¥": 3372,
      "âĢĶâĢĶ": 3373,
      "æİ¨åĬ¨": 3374,
      "ä¾Ĩ": 3375,
      "æłĩçŃ¾": 3376,
      "éĴ¢": 3377,
      "èįīèİĵ": 3378,
      "è¯Ńåı¥": 3379,
      "è®°å½ķ": 3380,
      "ä¼¯": 3381,
      "æ·±åħ¥": 3382,
      "å°Ĩåħ¶ä¸ŃçļĦ": 3383,
      "å·¥ä¸ļ": 3384,
      "æ·±åĳ¼åĲ¸": 3385,
      "ç§ĭå¤©çļĦ": 3386,
      "æľĢåĸľæ¬¢": 3387,
      "çİ¯ä¿ĿçļĦ": 3388,
      "çŃĸçķ¥": 3389,
      "å¼Ł": 3390,
      "çİ°åľ¨è¯·ä½ł": 3391,
      "éĹª": 3392,
      "çĶ¨çļĦ": 3393,
      "æ¨¡æĭŁ": 3394,
      "æĳĦæ°ıåº¦": 3395,
      "çŀ": 3396,
      "çĸ«èĭĹ": 3397,
      "æ±ģ": 3398,
      "ç±»åŀĭçļĦ": 3399,
      "äºĨè®¸å¤ļ": 3400,
      "æĲŃéħį": 3401,
      "éĢ»è¾ĳ": 3402,
      "éļľ": 3403,
      "çĽ¸ä¿¡": 3404,
      "ä¸ªæĢ§": 3405,
      "æ¨¡å¼ı": 3406,
      "å°ıçĭĹ": 3407,
      "ç¾İæĻ¯": 3408,
      "è¯¥åı¥åŃĲ": 3409,
      "åºĶçĶ¨äºİ": 3410,
      "é¥®æĸĻ": 3411,
      "æŁĲäºĽ": 3412,
      "èĽĭçĻ½": 3413,
      "æ¶Īè´¹": 3414,
      "æĸ°é²ľ": 3415,
      "çłĶç©¶è¡¨æĺİ": 3416,
      "ãĢĤâĢľ": 3417,
      "æŀ¶": 3418,
      "é£İåĲ¹": 3419,
      "æīĵå¼Ģ": 3420,
      "ä¸ĸçķĮä¸ĬæľĢ": 3421,
      "å¹´é¾Ħ": 3422,
      "å¥³åŃ©": 3423,
      "æľīè®¸å¤ļ": 3424,
      "å®ĭ": 3425,
      "å©ļ": 3426,
      "ç»ıè¿ĩ": 3427,
      "éļĶ": 3428,
      "èº«å¿ĥ": 3429,
      "è¯º": 3430,
      "åĽłä¸ºæĪĳ": 3431,
      "æİ¥ä¸ĭæĿ¥": 3432,
      "èľľ": 3433,
      "è§ĦåĪĻ": 3434,
      "éķľ": 3435,
      "æ¬§æ´²": 3436,
      "å¸¸è§ģçļĦ": 3437,
      "æĳĩ": 3438,
      "æĦŁåĪ°éĿŀå¸¸": 3439,
      "å¤ļçļĦ": 3440,
      "åĽº": 3441,
      "æĪ´": 3442,
      "çĥŃéĹ¨": 3443,
      "åıĹæ¬¢è¿İçļĦ": 3444,
      "ç¾İçļĦ": 3445,
      "ä½¿åħ¶æĽ´åĬłæµģçķħ": 3446,
      "åĴª": 3447,
      "å®£å¸ĥ": 3448,
      "éĵ¶è¡Į": 3449,
      "æĻĴ": 3450,
      "åķĨåºĹ": 3451,
      "éĩįæĸ°ç¼ĸåĨĻ": 3452,
      "æľĢä½İ": 3453,
      "æŃĮè¯į": 3454,
      "è½»æĿ¾": 3455,
      "éĩįæĸ°åĨĻ": 3456,
      "æ¡ĥ": 3457,
      "æĥħåĨµä¸ĭ": 3458,
      "ä¸Ģåľº": 3459,
      "è¿Ļç¯ĩæĸĩç«łä¸ŃçļĦ": 3460,
      "æĪĳåĴĮ": 3461,
      "åĲĪå¹¶æĪĲä¸Ģä¸ª": 3462,
      "å¼Ģå¿ĥ": 3463,
      "çĽŁ": 3464,
      "æıĲéĨĴ": 3465,
      "çļĦæłĩé¢ĺ": 3466,
      "èĩ£": 3467,
      "çĭ¬ç«ĭ": 3468,
      "æ··": 3469,
      "ï¼ĮâĢľ": 3470,
      "åħ³éĶ®çĤ¹": 3471,
      "åı¯åĨįçĶŁ": 3472,
      "åįĸ": 3473,
      "ç¥ĸ": 3474,
      "éĢļé¡º": 3475,
      "ä¸ªç³ĸæŀľ": 3476,
      "åĩºéĹ¨": 3477,
      "æİ¨èįĲä¸ĢäºĽ": 3478,
      "æī¹": 3479,
      "çĵ¶": 3480,
      "æĬĢæľ¯çļĦ": 3481,
      "æºª": 3482,
      "æħ§": 3483,
      "é½Ĳ": 3484,
      "çĨĬçĮ«": 3485,
      "è½®": 3486,
      "è¦ģåİ»": 3487,
      "çł´åĿı": 3488,
      "æª": 3489,
      "åħļ": 3490,
      "ç®ĢåĮĸ": 3491,
      "çĪĨ": 3492,
      "æī¬": 3493,
      "ä¸ºç»Ļå®ļçļĦ": 3494,
      "æĹ¶ä»£": 3495,
      "ä¸Ģæľ¬": 3496,
      "çī©çĲĨ": 3497,
      "ç©ĨæľĹ": 3498,
      "çıłç©ĨæľĹ": 3499,
      "æŁ³": 3500,
      "åŃĺåľ¨åĵªäºĽ": 3501,
      "çģ¾å®³": 3502,
      "ç¾Ĭ": 3503,
      "è¿Ļæ®µæĸĩåŃĹ": 3504,
      "ç©¿çĿĢ": 3505,
      "ç¤¼çī©": 3506,
      "æ·ĩ": 3507,
      "åĨĴéĻ©": 3508,
      "æ¼Ķè®²": 3509,
      "çıłç©ĨæľĹçİĽ": 3510,
      "çĮ«åĴª": 3511,
      "è´¡çĮ®": 3512,
      "çĶļ": 3513,
      "çĪ½": 3514,
      "åı£åı·": 3515,
      "åľ¨åħ¬åĽŃéĩĮ": 3516,
      "çıłç©ĨæľĹçİĽå³°": 3517,
      "æĹĭ": 3518,
      "åŃĺåľ¨åĵªäºĽå®ŀä½ĵ": 3519,
      "çļĦåĲįåŃĹ": 3520,
      "é¡¶": 3521,
      "äºĭçī©": 3522,
      "è¯»ä¹¦": 3523,
      "å£°éŁ³": 3524,
      "å¹´æĿ¥": 3525,
      "ä¸ĸçºª": 3526,
      "è¿Ļç¯ĩæĸĩç«łçļĦä¸»è¦ģè§ĤçĤ¹": 3527,
      "ä¸Ģç¯ĩåħ³äºİ": 3528,
      "è¯ŃéŁ³è¯ĨåĪ«": 3529,
      "åĽŀçŃĶè¿Ļä¸ªéĹ®é¢ĺ": 3530,
      "çĶ±äºİå¤©æ°Ķ": 3531,
      "ï¼īãĢĤ": 3532,
      "æĺ¯ä¸ª": 3533,
      "ä¸ĸçķĮä¸ĬæľĢé«ĺçļĦå±±å³°": 3534,
      "âĢĿ<|": 3535,
      "èĦı": 3536,
      "æľŁéĹ´": 3537,
      "èĥģ": 3538,
      "æĽ´åĩĨç¡®": 3539,
      "æĢĿç»´": 3540,
      "æīĵç®Ĺ": 3541,
      "æĸ¹ä¾¿": 3542,
      "æĺİåªļ": 3543,
      "è¿Ľè¡ĮåĪĨç±»": 3544,
      "è°ĥæķ´": 3545,
      "çĶŁåŃĺ": 3546,
      "åĨ°æ·ĩ": 3547,
      "é¼ĵåĬ±": 3548,
      "ä¿Ĺ": 3549,
      "çº½çº¦å¸Ĥ": 3550,
      "ä¸ŃæıĲåıĸåĩº": 3551,
      "éĶħ": 3552,
      "åĨ°æ·ĩæ·ĭ": 3553,
      "ä¸Ģé¡¹": 3554,
      "è¿Ļæ®µè¯Ŀ": 3555,
      "ç¬¬ä¸ī": 3556,
      "åĲ´": 3557,
      "é¬": 3558,
      "ä½łæľīä»Ģä¹Ī": 3559,
      "å¼¹": 3560,
      "æīĺ": 3561,
      "æµªè´¹": 3562,
      "éª¤": 3563,
      "æĪĲéķ¿": 3564,
      "æ·±åĪ»": 3565,
      "åı¤è¯ĹçĶŁæĪĲ": 3566,
      "è¾ħ": 3567,
      "å¤§çº¦": 3568,
      "æĽ´æĶ¹": 3569,
      "çĤĴ": 3570,
      "å¾ª": 3571,
      "åįķè¯įçļĦ": 3572,
      "çĶ¨æĿ¥": 3573,
      "æĸĩç«łåĨħå®¹": 3574,
      "æ¸ħæ´ģ": 3575,
      "åŃ¦ä¹łç¼ĸç¨ĭ": 3576,
      "åĨĻä¸Ģé¦ĸ": 3577,
      "ç¦ģ": 3578,
      "æĿ¨": 3579,
      "è§Ĩé¢ĳ": 3580,
      "æĪĳä¸įçŁ¥éģĵ": 3581,
      "åŁĥ": 3582,
      "æ°Ľ": 3583,
      "ä¸ºä¸Ģä¸ª": 3584,
      "çĽĲ": 3585,
      "æĹ¶éĹ´åĴĮ": 3586,
      "å°¤åħ¶": 3587,
      "æİ¥åıĹ": 3588,
      "æĢķ": 3589,
      "æŃ£å¼ı": 3590,
      "ä¸¹": 3591,
      "ä¸Ģå¤©": 3592,
      "é¢Ħç®Ĺ": 3593,
      "åī§æĥħ": 3594,
      "å¤ķ": 3595,
      "ä¸ŃæľĢ": 3596,
      "ä½łè§īå¾Ĺ": 3597,
      "è¯·éĹ®æĤ¨": 3598,
      "200": 3599,
      "ç¶": 3600,
      "åŃĲçļĦ": 3601,
      "é²ģ": 3602,
      "ä¸Ģä»¶": 3603,
      "å¨ģèĥģ": 3604,
      "åĬ©æīĭ": 3605,
      "è®¿éĹ®": 3606,
      "ç¢§": 3607,
      "çļĦåİĨåı²": 3608,
      "çļĦä¸»è¦ģåĨħå®¹": 3609,
      "èĦ±": 3610,
      "æĻºèĥ½å®¶å±ħ": 3611,
      "åĿĢ": 3612,
      "åŃĻ": 3613,
      "æľĢå¥½": 3614,
      "å®ļæľŁ": 3615,
      "éĢĤåºĶ": 3616,
      "è¿ħ": 3617,
      "èĸĦ": 3618,
      "è¡¨æ¼Ķ": 3619,
      "åĽ¾ä¹¦é¦Ĩ": 3620,
      "å¼Ģå¤´": 3621,
      "è¯»èĢħ": 3622,
      "æĸ¼": 3623,
      "éĩİé¤Ĳ": 3624,
      "çļĦé£İéĻ©": 3625,
      "æĴ°": 3626,
      "çĶŁæĪĲä¸Ģä¸ªæłĩé¢ĺ": 3627,
      "è·µ": 3628,
      "çĶ²": 3629,
      "ä¼ĺåĮĸ": 3630,
      "åİŁå§ĭåı¥åŃĲ": 3631,
      "åĳĪ": 3632,
      "çħ®": 3633,
      "èĻ«": 3634,
      "è¦ģæ±Ĥåħ·æľī": 3635,
      "ä¸ŃæĢ§": 3636,
      "æĸ¹æ³ķåı¯ä»¥": 3637,
      "è¿Ľåħ¥": 3638,
      "éģĩåĪ°": 3639,
      "æ¯ıä¸ªäººéĥ½": 3640,
      "æľĥ": 3641,
      "ä¸»ä¹ī": 3642,
      "æĻļé¤Ĳ": 3643,
      "æĺ¯çĶ±": 3644,
      "å±ķç¤º": 3645,
      "åŃ¦ä¹łåĴĮ": 3646,
      "ç«ŀäºī": 3647,
      "åĪĨç±»ä¸º": 3648,
      "åľ¨åĵªéĩĮ": 3649,
      "çļĦåİŁåĽł": 3650,
      "çĶĺ": 3651,
      "åºĶè¯¥æĺ¯": 3652,
      "è¯·å¸®æĪĳ": 3653,
      "ä¹ĭåĲİ": 3654,
      "æ»¡æĦı": 3655,
      "ç¼ºä¹ı": 3656,
      "å½¼": 3657,
      "åĳ½åĲį": 3658,
      "åĪļåĪļ": 3659,
      "åĩ¡": 3660,
      "å®£ä¼ł": 3661,
      "å¯Ħ": 3662,
      "ä¸»äºº": 3663,
      "çĭ¬çī¹çļĦ": 3664,
      "æĺ¯ä¸ŃåĽ½": 3665,
      "åĬŀåħ¬": 3666,
      "æģĴ": 3667,
      "çģ«è½¦": 3668,
      "ä¼ĳæģ¯": 3669,
      "ä¸§": 3670,
      "åīįæĻ¯": 3671,
      "è¿½æ±Ĥ": 3672,
      "ä¸ºæĪĳ": 3673,
      "çİ°è±¡": 3674,
      "åľ¨ä¸Ģä¸ª": 3675,
      "è¡¨æł¼": 3676,
      "å°º": 3677,
      "é¦ĸåħĪ": 3678,
      "å¤§æ°Ķ": 3679,
      "è¿ŀæİ¥": 3680,
      "çĳŀ": 3681,
      "æ³Ĭ": 3682,
      "è£¤": 3683,
      "å¦ĤæŃ¤": 3684,
      "æĺŁçĲĥ": 3685,
      "å¤ıæĹ¥": 3686,
      "æĺ¯åħ³äºİ": 3687,
      "äººå·¥æĻºèĥ½çļĦåºĶçĶ¨": 3688,
      "æĪĲæľ¬": 3689,
      "æĺ¯æĪĳ": 3690,
      "æĪĺäºī": 3691,
      "æĹ¶å°ļ": 3692,
      "å¤ľæĻļ": 3693,
      "ä»¥ä¸ĭæ®µèĲ½": 3694,
      "è¯Ńæ°Ķ": 3695,
      "è¶³å¤ŁçļĦ": 3696,
      "æĹ¶æľŁ": 3697,
      "è¦ģçĤ¹": 3698,
      "åĲĦä¸ª": 3699,
      "è¯·æĤ¨": 3700,
      "ç¤ºä¾ĭ": 3701,
      "èı²": 3702,
      "åı¯åĨįçĶŁèĥ½æºĲ": 3703,
      "æł¹æį®æīĢ": 3704,
      "åĬłä¸Ĭ": 3705,
      "æłĩåĩĨ": 3706,
      "èĢĹ": 3707,
      "çļĦæııè¿°": 3708,
      "æĹ¶åħī": 3709,
      "åľ¨ä¸Ģèµ·": 3710,
      "ä¸²": 3711,
      "çĿĽ": 3712,
      "æķı": 3713,
      "å¯¹çİ¯å¢ĥ": 3714,
      "åľ¨ç»Ļå®ļçļĦ": 3715,
      "å¸®åĬ©æĤ¨": 3716,
      "ç¿ł": 3717,
      "çļĦä¸Ģä¸ª": 3718,
      "å¾Īæľī": 3719,
      "åĮ»éĻ¢": 3720,
      "ä¸įéĶĻçļĦ": 3721,
      "é«ĺåº¦": 3722,
      "è¯·ä»İæĸĩç«łä¸ŃæıĲåıĸåĩº": 3723,
      "çľŁæŃ£": 3724,
      "éħĴåºĹ": 3725,
      "åĩĢ": 3726,
      "çĶ¨ä¸Ģåı¥è¯Ŀ": 3727,
      "æĳĺåıĸ": 3728,
      "ä¸¤åı¥è¯Ŀ": 3729,
      "èĤª": 3730,
      "æĪĲç»©": 3731,
      "èĦĤèĤª": 3732,
      "æ¯ĶèµĽä¸Ń": 3733,
      "èİ·å¾ĹäºĨ": 3734,
      "ä¸ĭéĿ¢çļĦæĸĩæľ¬": 3735,
      "éļ¾ä»¥": 3736,
      "è½¬åĮĸ": 3737,
      "çķª": 3738,
      "æ¸©å®¤": 3739,
      "çĤİçĥŃ": 3740,
      "ä¸ŃçļĦåºĶçĶ¨": 3741,
      "éĺµ": 3742,
      "é¢Ħè®¢": 3743,
      "æ³ī": 3744,
      "æ°§åĮĸ": 3745,
      "é¢Ĩå¯¼": 3746,
      "ä¸Ģéĥ¨": 3747,
      "åıªæĺ¯": 3748,
      "æĻºæħ§": 3749,
      "å¢¨": 3750,
      "èĦ¸": 3751,
      "çļĦæ´»åĬ¨": 3752,
      "æĪĳåĸľæ¬¢åĲĥ": 3753,
      "çĽ¸åħ³ä¿¡æģ¯": 3754,
      "éĩĬä¹ī": 3755,
      "éĩįè¿°": 3756,
      "åıĺæĪĲ": 3757,
      "ä¼ĺåĬ¿": 3758,
      "çļĨ": 3759,
      "èİ±": 3760,
      "åıįåºĶ": 3761,
      "äºĮåįģ": 3762,
      "è¿ĩç¨ĭä¸Ń": 3763,
      "æķ¬": 3764,
      "çĦ¶èĢĮ": 3765,
      "æľīä¸ĢäºĽ": 3766,
      "èĽĭçĻ½è´¨": 3767,
      "å¼ºè°ĥäºĨ": 3768,
      "èį¡": 3769,
      "åħ¬éĩĮ": 3770,
      "åĪĹä¸¾": 3771,
      "èģļä¼ļ": 3772,
      "ä¼Ł": 3773,
      "è¯Ĺäºº": 3774,
      "æĦīæĤ¦": 3775,
      "æĺ¯è°ģ": 3776,
      "æİĮæı¡": 3777,
      "ĠæĪĳ": 3778,
      "æĮĩä»¤": 3779,
      "ä¸ºä¸Ģåı¥è¯Ŀ": 3780,
      "åİ»å¹´": 3781,
      "çĭĤ": 3782,
      "æŃ¥éª¤": 3783,
      "æ¤Ĵ": 3784,
      "å¦Ĥä¸ĭ": 3785,
      "çĶŁæ´»ä¸Ń": 3786,
      "åŃ¸": 3787,
      "åıĳæĮ¥": 3788,
      "æĢ§èĥ½": 3789,
      "èµ¢å¾Ĺ": 3790,
      "éĢĬ": 3791,
      "èĲ§": 3792,
      "äºĪ": 3793,
      "è¿Ļä¸¤ä¸ª": 3794,
      "æĽ´ç®Ģæ´ģ": 3795,
      "è¿Ļæ¬¡": 3796,
      "å¿½": 3797,
      "èĢį": 3798,
      "èĥ¡": 3799,
      "ç»ĦåĲĪ": 3800,
      "èĳ¡èĲ": 3801,
      "èĳ¡èĲĦ": 3802,
      "è§Ĥçľĭ": 3803,
      "åİĨåı²ä¸Ĭ": 3804,
      "ç»Ļå®ļæĸĩæľ¬": 3805,
      "å®ŀè·µ": 3806,
      "è·¯ä¸Ĭ": 3807,
      "æ®Ĭ": 3808,
      "èĻļæĭŁ": 3809,
      "åĸľåī§": 3810,
      "åĤ¨": 3811,
      "åį°åº¦": 3812,
      "çĶµå½±éĻ¢": 3813,
      "èĤº": 3814,
      "çļĦæ®µèĲ½": 3815,
      "åĲ¬éŁ³ä¹Ĳ": 3816,
      "è¯·æıĲåıĸåĩº": 3817,
      "å½ĵåľ°çļĦ": 3818,
      "å»ºè®¾": 3819,
      "çļĦå·¥ä½ľ": 3820,
      "çłĶåıĳ": 3821,
      "æŀ«": 3822,
      "çĤ¸": 3823,
      "æĸ°äº§åĵģ": 3824,
      "è°¢è°¢ä½łçļĦ": 3825,
      "èĤ´": 3826,
      "èĤ¤": 3827,
      "éĿ¢ç§¯": 3828,
      "å¸¸å¸¸": 3829,
      "çļĦåħ·ä½ĵ": 3830,
      "æĪĲè¯ŃéĩĬä¹ī": 3831,
      "å¹¶ç»Ļåĩº": 3832,
      "å¨±ä¹Ĳ": 3833,
      "éģŃ": 3834,
      "éĺ¶": 3835,
      "ç¼ĸåĨĻä¸Ģä¸ª": 3836,
      "åįł": 3837,
      "éĺ³åħīæĺİåªļ": 3838,
      "è³": 3839,
      "éĩĮæľī": 3840,
      "èĥ½ä¸įèĥ½": 3841,
      "è°ľ": 3842,
      "å¾Ĵ": 3843,
      "åıĬåħ¶": 3844,
      "å¤§èĩªçĦ¶": 3845,
      "è¢ĸ": 3846,
      "å¸Ń": 3847,
      "çľ¼çĿĽ": 3848,
      "å°½åı¯èĥ½": 3849,
      "å·¨å¤§çļĦ": 3850,
      "25": 3851,
      "ä¸Ģæ¬¾": 3852,
      "ç¡¬": 3853,
      "æ¸¯": 3854,
      "____": 3855,
      "æĪĳå·²ç»ı": 3856,
      "åİ¨": 3857,
      "èĩªåĬ¨åĮĸ": 3858,
      "ä¸ļåĬ¡": 3859,
      "ä¸įå¤ª": 3860,
      "ç´§å¼ł": 3861,
      "éĩıçļĦ": 3862,
      "å¯¹æĸĩæľ¬éĶĻè¯¯è¿Ľè¡Įä¿®æĶ¹": 3863,
      "åĭ¤": 3864,
      "æİĪ": 3865,
      "çº¢èī²çļĦ": 3866,
      "ä½łä¼ļ": 3867,
      "åºĦ": 3868,
      "åį§": 3869,
      "èıľåįķ": 3870,
      "èĢĢ": 3871,
      "éĢĻ": 3872,
      "çī¹èī²": 3873,
      "çļĦåĲ«ä¹īæĺ¯ä»Ģä¹Ī": 3874,
      "çĥ¹": 3875,
      "ä¸Ģå¹´": 3876,
      "è¿Ļä¸ªè¯įè¯Ńæĺ¯ä»Ģä¹ĪæĦıæĢĿ": 3877,
      "çĭĹçĭĹ": 3878,
      "åħ´å¥ĭ": 3879,
      "ä¿ĿçķĻ": 3880,
      "ä¸ĭéĻį": 3881,
      "çĽ¸å¯¹": 3882,
      "éĩįåĨĻä¸º": 3883,
      "æĢģåº¦": 3884,
      "éĤ£äºĽ": 3885,
      "èĤĸ": 3886,
      "çĥ¦": 3887,
      "âĢĿãĢģ": 3888,
      "æĪ·å¤ĸæ´»åĬ¨": 3889,
      "ç»ĵè®º": 3890,
      "çģŃ": 3891,
      "è®¡ç®Ĺæľºç§ĳåŃ¦": 3892,
      "è§ĦåĪĴ": 3893,
      "ä¸»è¯Ń": 3894,
      "å¥³æĢ§": 3895,
      "æ¸©å®¤æ°Ķä½ĵ": 3896,
      "é¢Ħè®¡": 3897,
      "èµĭ": 3898,
      "é²¸": 3899,
      "å®ĥåı¯ä»¥": 3900,
      "å¥¥è¿Ĳ": 3901,
      "æĺ¯åĵª": 3902,
      "è´¯": 3903,
      "äººåľ¨": 3904,
      "ç©·": 3905,
      "èĤĮ": 3906,
      "æĹ¨åľ¨": 3907,
      "éĢĥ": 3908,
      "åıĳæĺİ": 3909,
      "éľĢè¦ģæĪĳ": 3910,
      "åº¦è¿ĩ": 3911,
      "æĲº": 3912,
      "çĽ¸åıį": 3913,
      "åĲ«æľī": 3914,
      "æĺ¯ä¸ĢåĲį": 3915,
      "çİ©èĢį": 3916,
      "åį³ä½¿": 3917,
      "æ¡£": 3918,
      "æĳ©": 3919,
      "çİ¯ä¿ĿæĦıè¯Ĩ": 3920,
      "ç¨ĭåº¦": 3921,
      "æĽ¼": 3922,
      "åĵģå°Ŀ": 3923,
      "æĤ£èĢħ": 3924,
      "éĢĲæ¸Ĳ": 3925,
      "çĮľ": 3926,
      "å°±åĥı": 3927,
      "å¢Ļ": 3928,
      "çĸı": 3929,
      "æ¸ħåįķ": 3930,
      "å¾Īæ£Ĵ": 3931,
      "åĮĸåŃ¦": 3932,
      "å¤ļäºĳ": 3933,
      "æĺ¥å¤©": 3934,
      "çļĦå¤©æ°ĶæĥħåĨµ": 3935,
      "æĪĳæİ¨èįĲ": 3936,
      "å¦ĩ": 3937,
      "ç»ĻäºĨ": 3938,
      "çī©ä½ĵ": 3939,
      "è§£çŃĶ": 3940,
      "å½±åĥı": 3941,
      "é¢ĨåŁŁçļĦ": 3942,
      "ä¼ŀ": 3943,
      "è§Ħå¾ĭ": 3944,
      "äººå¿ĥ": 3945,
      "æıĲä¾ĽäºĨ": 3946,
      "åŃĹç¬¦": 3947,
      "æĸĩæľ¬è¿Ľè¡ĮçºłéĶĻ": 3948,
      "èĮĦ": 3949,
      "ä½łè®¤ä¸º": 3950,
      "æľ±": 3951,
      "çº¯": 3952,
      "æĦıè§ģ": 3953,
      "çĿ£": 3954,
      "æ³ª": 3955,
      "å®ŀéªĮ": 3956,
      "çľŁæĺ¯": 3957,
      "å¥Ķ": 3958,
      "ä¸ĭéĿ¢è¿Ļä¸ªåı¥åŃĲ": 3959,
      "çļĦèĥ½åĬĽ": 3960,
      "åĩºåİ»": 3961,
      "ä¸Ĭè¿°æĸĩæľ¬è¿Ľè¡ĮçºłéĶĻ": 3962,
      "ç»ĵåĲĪ": 3963,
      "ç¨³å®ļ": 3964,
      "çĭ®": 3965,
      "å¥½å¤Ħ": 3966,
      "æĻ¯èī²": 3967,
      "çªģçĦ¶": 3968,
      "ç¦»å¼Ģ": 3969,
      "åĳ¨åĽ´": 3970,
      "è¯ĦåĪĨ": 3971,
      "äººå·¥æĻºèĥ½åľ¨åĮ»çĸĹé¢ĨåŁŁ": 3972,
      "åıĤè§Ĥ": 3973,
      "åįİçĽĽ": 3974,
      "ç»ĻæĤ¨": 3975,
      "æĵİ": 3976,
      "åĢ¼å¾Ĺä¸Ģ": 3977,
      "æĹħæ¸¸æĻ¯çĤ¹": 3978,
      "åį«çĶŁ": 3979,
      "æĸ°åŀĭ": 3980,
      "ç¨į": 3981,
      "æĤ¨åı¯ä»¥å°Ŀè¯ķ": 3982,
      "åľ¨ä¸ŃåĽ½": 3983,
      "åįģå¹´": 3984,
      "ä¸ģ": 3985,
      "æĪĳä¸įèĥ½": 3986,
      "åĬ£": 3987,
      "ä¹Į": 3988,
      "åįİçĽĽé¡¿": 3989,
      "äºĨä¸Ģåıª": 3990,
      "å¤®": 3991,
      "æ³ķè§Ħ": 3992,
      "æĦŁåĪ°å¾Ī": 3993,
      "é£ŀæľº": 3994,
      "æľīä»»ä½ķ": 3995,
      "æ²ŁéĢļ": 3996,
      "èĵĿèī²çļĦ": 3997,
      "èĤ¡ç¥¨": 3998,
      "èıľåĵģ": 3999,
      "æ¬£èµı": 4000,
      "ç¼ºçĤ¹": 4001,
      "ç¾İåĳ³çļĦ": 4002,
      "è§¦": 4003,
      "çľĭåĪ°äºĨ": 4004,
      "æ¢ģ": 4005,
      "èľĤ": 4006,
      "æ²Ļæĭī": 4007,
      "84": 4008,
      "æĥħå¢ĥ": 4009,
      "èĪŁ": 4010,
      "åĲİçļĦæĸĩæľ¬": 4011,
      "åĨľä¸ļ": 4012,
      "æĪĸçŁŃè¯Ń": 4013,
      "å¯ĴåĨ·": 4014,
      "èįĴ": 4015,
      "çĶ·åŃ©": 4016,
      "è¡«": 4017,
      "è¸ª": 4018,
      "æŃ»äº¡": 4019,
      "å¾Īå¥½çļĦ": 4020,
      "çŃĶæ¡Īæĺ¯": 4021,
      "æ³¡": 4022,
      "æľĢéĩįè¦ģçļĦ": 4023,
      "èī²å½©": 4024,
      "æ²¡æľīæıĲä¾Ľ": 4025,
      "æķ°åŃ¦é¢ĺ": 4026,
      "ä½ľå®¶": 4027,
      "æĿİæĺİ": 4028,
      "åĴĮæ²»çĸĹ": 4029,
      "åĨ³äºİ": 4030,
      "è¯ĨåĪ«åĩº": 4031,
      "é£Łè°±": 4032,
      "ä¸Ģæ®µè¯Ŀ": 4033,
      "ä¹Łä¼ļ": 4034,
      "æ°Ķè±¡": 4035,
      "è¯¥æĸĩæľ¬": 4036,
      "å¦Ĥæŀľä½łåĸľæ¬¢": 4037,
      "æ¶µ": 4038,
      "è£Ļ": 4039,
      "è´¢åĬ¡": 4040,
      "åıĸåĨ³äºİ": 4041,
      "çī©ç§į": 4042,
      "åı£è¯Ń": 4043,
      "å»ºè®®åĲĹ": 4044,
      "åĨĻä¸Ģç¯ĩ": 4045,
      "éģ¥": 4046,
      "ä»ĬæĻļ": 4047,
      "å°ıåŃ¦": 4048,
      "è¿Ļåľº": 4049,
      "èį·": 4050,
      "å¯Ĩçłģ": 4051,
      "åĨłåĨĽ": 4052,
      "æĢª": 4053,
      "åĵ²": 4054,
      "å¸®ä½ł": 4055,
      "åĦ¿ç«¥": 4056,
      "ä¸Ģå¼ł": 4057,
      "ä¸ľäº¬": 4058,
      "æĶ¯ä»ĺ": 4059,
      "è¯Ħä¼°": 4060,
      "åħĶ": 4061,
      "å§ĵåĲį": 4062,
      "è®¾ç½®": 4063,
      "åĵĪåĪ©": 4064,
      "å¸¦æĿ¥çļĦ": 4065,
      "åĮĹäº¬å¸Ĥ": 4066,
      "âĢĿãĢģâĢľ": 4067,
      "çĽ¸äºĴ": 4068,
      "ç§ĭé£İ": 4069,
      "åľ°ä¸Ĭ": 4070,
      "æĸĩç«łä¸ŃæıĲåıĸåĩº": 4071,
      "è°¢è°¢ä½ł": 4072,
      "çļĦæķ°æį®": 4073,
      "æµ·æĭĶ": 4074,
      "æĻĭ": 4075,
      "æģĭ": 4076,
      "ç§¯æŀģçļĦ": 4077,
      "åı¥åŃĲä¸Ń": 4078,
      "ä¸įå¾Ĺ": 4079,
      "åľ¨æŃ¤": 4080,
      "éĿ¢å¯¹": 4081,
      "ç³Ł": 4082,
      "çº¦ä¸º": 4083,
      "åħĭçļĦ": 4084,
      "é³": 4085,
      "çİĽä¸½": 4086,
      "åĮºåĿĹ": 4087,
      "éļıæľº": 4088,
      "æį·": 4089,
      "èªī": 4090,
      "åı¯è¯»": 4091,
      "å¾ĹåĪ°äºĨ": 4092,
      "åĵģè´¨": 4093,
      "å¿ĥèĦı": 4094,
      "æĢ»ç»ĵä¸Ģä¸ĭ": 4095,
      "ä¸įèµ·": 4096,
      "ç»ĻæĪĳä¸ĢäºĽ": 4097,
      "ç¾İåĽ½æĢ»ç»Ł": 4098,
      "æ¦Ĥè¿°": 4099,
      "æĻºèĥ½æīĭæľº": 4100,
      "å°¼åħĭ": 4101,
      "çģµæĦŁ": 4102,
      "å¼ķæĵİ": 4103,
      "ä¸ĬçıŃ": 4104,
      "æįķ": 4105,
      "æ¶Īæģ¯": 4106,
      "ä½Ĩä¸į": 4107,
      "å¾Īéļ¾": 4108,
      "åĩºäºĨ": 4109,
      "è¯·æł¹æį®": 4110,
      "èĳ±": 4111,
      "ĠĠ": 4112,
      "äºĨä¸Ģç§į": 4113,
      "äºĶè¨Ģ": 4114,
      "åģıå¥½": 4115,
      "æĽ´åħ·ä½ĵ": 4116,
      "ï¼ī<|": 4117,
      "çļĦåħ³éĶ®": 4118,
      "æĹ¥åŃĲ": 4119,
      "èĿ¶": 4120,
      "æĦıå¤§åĪ©éĿ¢": 4121,
      "ç¥ŀç»ıç½ĳç»ľ": 4122,
      "äººåı£": 4123,
      "å°ıæĺİæīĭ": 4124,
      "æĺİæĺ¾": 4125,
      "åħĪçĶŁ": 4126,
      "ä¸Ģèµ·åİ»": 4127,
      "æľīçļĦ": 4128,
      "ç¾½": 4129,
      "å¯¼æ¼Ķ": 4130,
      "éĻĦè¿ĳçļĦ": 4131,
      "åľ¨äºİ": 4132,
      "ä¸ĭåĳ¨": 4133,
      "æĢĸ": 4134,
      "ç¨İ": 4135,
      "èĩªçĦ¶çģ¾å®³": 4136,
      "å¥¥è¿Ĳä¼ļ": 4137,
      "åĴĮæĸĩåĮĸ": 4138,
      "æĥľ": 4139,
      "æĪĳä¼ļå°½åĬĽ": 4140,
      "æĤ¨çļĦéĹ®é¢ĺ": 4141,
      "è¿Ľå±ķ": 4142,
      "é©¬æĭī": 4143,
      "çģ°": 4144,
      "è²Į": 4145,
      "ä¿Ŀè¯ģ": 4146,
      "å¹³éĿ¢": 4147,
      "ç¤¾åĮº": 4148,
      "æıĲåĩºäºĨ": 4149,
      "æĿ¥æºĲ": 4150,
      "èµµ": 4151,
      "å¤§è±¡": 4152,
      "è¿Ļç¯ĩæĸĩç«łä¸»è¦ģ": 4153,
      "é¹ħ": 4154,
      "æľīæĦıä¹ī": 4155,
      "åĮºåĿĹéĵ¾": 4156,
      "å¾Īå¤§": 4157,
      "Ġåľ¨": 4158,
      "åĴĮæĺĵäºİçĲĨè§£": 4159,
      "å±ı": 4160,
      "åıĺå¾ĹæĽ´åĬł": 4161,
      "æľīæķĪçļĦ": 4162,
      "æ´ª": 4163,
      "èĬĿ": 4164,
      "å®¡": 4165,
      "å¼±": 4166,
      "å¯¹ä»¥ä¸ĭåı¥åŃĲ": 4167,
      "è§Ĥä¼Ĺ": 4168,
      "æĽ¾ç»ı": 4169,
      "æģĲæĢĸ": 4170,
      "ä»¥ä¾¿æĪĳ": 4171,
      "èī¾": 4172,
      "å±±èĦī": 4173,
      "ä¸ĢåĢĭ": 4174,
      "åĽłä¸ºä»ĸ": 4175,
      "æĪĳå¾Īåĸľæ¬¢": 4176,
      "èĲ½åı¶": 4177,
      "çŃīå¾ħ": 4178,
      "æĸĩæĺİ": 4179,
      "æ¯ķ": 4180,
      "æĹ©æĻ¨": 4181,
      "é£ŀè¡Į": 4182,
      "ä»ģ": 4183,
      "ä¸įçĶ¨": 4184,
      "çī¹å®ļçļĦ": 4185,
      "å¼ºçĥĪ": 4186,
      "å°±ä¸ļ": 4187,
      "æĢİä¹ĪåĬŀ": 4188,
      "åĴĮåħ¶ä»ĸ": 4189,
      "ä½łèĥ½åĳĬè¯īæĪĳ": 4190,
      "è¡¨è¿°": 4191,
      "éģĩåĪ°äºĨ": 4192,
      "æĹłè®º": 4193,
      "çĶµå½±çļĦ": 4194,
      "è±ª": 4195,
      "åłª": 4196,
      "çļĦäººåĲį": 4197,
      "æĹłéĻĲ": 4198,
      "æĶ¾åľ¨": 4199,
      "Ġå½ĵçĦ¶": 4200,
      "è¯·ä¸ºæĪĳ": 4201,
      "å²©": 4202,
      "åĲ¾": 4203,
      "ç»Ļå®ļä¸Ģç¯ĩæĸĩç«ł": 4204,
      "åı¯èĥ½çļĦ": 4205,
      "å¾®é£İ": 4206,
      "çĽ®çļĦ": 4207,
      "åĮ¹": 4208,
      "æĹłäºº": 4209,
      "ä½¿åħ¶æĽ´åħ·": 4210,
      "å®ŀæĸ½": 4211,
      "ãĢį": 4212,
      "éķ¿æĹ¶éĹ´": 4213,
      "ç§¦": 4214,
      "è®°å¿Ĩ": 4215,
      "çļĦåħ³éĶ®è¯į": 4216,
      "çĮİ": 4217,
      "æĢİæł·": 4218,
      "ç¨¿": 4219,
      "ä½łæĥ³": 4220,
      "ç»Łè®¡": 4221,
      "åĭķ": 4222,
      "èĤł": 4223,
      "å¾·åĽ½": 4224,
      "åĩºè¡Į": 4225,
      "ãĢĮ": 4226,
      "è¦Ĩ": 4227,
      "æľīçĽĬ": 4228,
      "èĥ½éĩı": 4229,
      "æĺİçĻ½": 4230,
      "éĻµ": 4231,
      "çļĦé¦ĸ": 4232,
      "éĥİ": 4233,
      "å¹¶å°Ĩåħ¶": 4234,
      "éĥ¨éĹ¨": 4235,
      "æľºåľº": 4236,
      "çĿ¡è§ī": 4237,
      "è¿Ļæ¬¾": 4238,
      "æ¶²": 4239,
      "Ġå½ĵçĦ¶åı¯ä»¥": 4240,
      "å°Ĩç»Ļå®ļçļĦ": 4241,
      "èĴĻ": 4242,
      "è®¸å¤ļäºº": 4243,
      "æ±īåł¡": 4244,
      "ä¸ĬéĿ¢": 4245,
      "åĸĿåĴĸåķ¡": 4246,
      "å®¿": 4247,
      "é¸Ń": 4248,
      "èĴĤ": 4249,
      "éľĢè¦ģæ³¨æĦı": 4250,
      "çĽ¸åºĶçļĦ": 4251,
      "é¹¿": 4252,
      "è¿ĺåī©ä¸ĭ": 4253,
      "16": 4254,
      "ä¸ĸçķĮæĿ¯": 4255,
      "çľŁå¥½": 4256,
      "å¥½äºĨ": 4257,
      "ãĢĤâĢĿ\\": 4258,
      "çĶµè§Ĩåī§": 4259,
      "å¯¹äººç±»": 4260,
      "è´«": 4261,
      "éģµ": 4262,
      "ç²¾å½©": 4263,
      "éĻ¤äºĨ": 4264,
      "åı¯ä»¥å°Ŀè¯ķ": 4265,
      "æĪĳåĸľæ¬¢åľ¨": 4266,
      "è¿Ļåıª": 4267,
      "ç»Ļå®ļä¸Ģæ®µæĸĩæľ¬": 4268,
      "ä¼ĺç§ĢçļĦ": 4269,
      "æ¨ª": 4270,
      "åĩºçļĦ": 4271,
      "ä»ĸåĸľæ¬¢": 4272,
      "æĶ¶åħ¥": 4273,
      "æĸĩç«łä¸ŃæıĲåĪ°äºĨ": 4274,
      "èī³": 4275,
      "ç¼ĺ": 4276,
      "é£ŁæĿĲ": 4277,
      "åıĳå±ķçļĦ": 4278,
      "è´¦": 4279,
      "èıľèĤ´": 4280,
      "èĪį": 4281,
      "æŀģç«¯": 4282,
      "èİİ": 4283,
      "çŁ¶": 4284,
      "å°½å¿«": 4285,
      "éĩĮéĿ¢": 4286,
      "æī¼": 4287,
      "æĸ¯åĿ¦": 4288,
      "ä¸Ģä¸ªéĹ®é¢ĺ": 4289,
      "è§Ħæ¨¡": 4290,
      "çĶŁæĪĲä¸Ģä¸ªä¸İ": 4291,
      "çİ¯ä¿Ŀæİªæĸ½": 4292,
      "æ³¨éĩį": 4293,
      "åıĭå¥½": 4294,
      "ä¼łæĴŃ": 4295,
      "æĤ¬çĸĳ": 4296,
      "æĪĳæĥ³è¦ģ": 4297,
      "æĪĳæĺ¯ä¸Ģä¸ª": 4298,
      "æĻĤ": 4299,
      "ä½ľä¸ļ": 4300,
      "éĥ½åı¯ä»¥": 4301,
      "on": 4302,
      "æĿī": 4303,
      "ä¸įè¶³": 4304,
      "è¿Ļä½į": 4305,
      "2021": 4306,
      "å¯¿åĳ½": 4307,
      "æĸĩç«łä¸Ńåħ³äºİ": 4308,
      "çļĦå¥½å¤Ħ": 4309,
      "çĻ¼": 4310,
      "ä¸įåıĺ": 4311,
      "èħ¿": 4312,
      "åıĬæĹ¶": 4313,
      "çĳŁ": 4314,
      "è¯·å°Ĩ": 4315,
      "æĥ³è±¡": 4316,
      "æĮĩå¯¼": 4317,
      "éģĵå¾·": 4318,
      "å¤ļæķ°": 4319,
      "è¯·åĽŀçŃĶ": 4320,
      "åħ¨åĽ½": 4321,
      "è¿Ļé¦ĸè¯Ĺ": 4322,
      "éĢĴ": 4323,
      "æĪĲå°±": 4324,
      "æīĢéľĢ": 4325,
      "åįľ": 4326,
      "äº¤æĺĵ": 4327,
      "ä¸»è§Ĵ": 4328,
      "è´¸": 4329,
      "åķĨåĵģæĸĩæ¡Ī": 4330,
      "éĢ¢": 4331,
      "ä¸įéľĢè¦ģ": 4332,
      "ä½łèĥ½å¸®æĪĳ": 4333,
      "åĩºåıĳ": 4334,
      "æĮĤ": 4335,
      "ä¸¾åĬŀ": 4336,
      "å¯¹åħ¶": 4337,
      "è®©å®ĥ": 4338,
      "æ³°åĿ¦": 4339,
      "æ¶ĪæŀģçŃĶæ¡Ī": 4340,
      "çļĦä¹¦": 4341,
      "åĪĨä¸º": 4342,
      "æĽ´ç®Ģåįķ": 4343,
      "è¿Ļä¸ªé¡¹çĽ®": 4344,
      "çĻĮçĹĩ": 4345,
      "åĭĴ": 4346,
      "åŀĤ": 4347,
      "æĻĵ": 4348,
      "åĲ¬åĪ°": 4349,
      "èģĶåĲĪ": 4350,
      "çļĦå½¢å¼ı": 4351,
      "ä»ª": 4352,
      "éĩıåŃĲ": 4353,
      "æ²³æµģ": 4354,
      "èĪªçıŃ": 4355,
      "è´ŁéĿ¢å½±åĵį": 4356,
      "ä¾¿åĪ©": 4357,
      "çļĦä½¿çĶ¨": 4358,
      "åı¤èĢģ": 4359,
      "ä»ĸå¾Ī": 4360,
      "æĪĳä»¬å°Ĩ": 4361,
      "ä¸ĭçļĦ": 4362,
      "æĺ¯ç¾İåĽ½": 4363,
      "æµ·å¹³éĿ¢": 4364,
      "æļ®": 4365,
      "çľĭæ³ķ": 4366,
      "ä¾µ": 4367,
      "è¯¥åħ¬åı¸": 4368,
      "æ¼ł": 4369,
      "ä½¿å®ĥ": 4370,
      "ä¹ĭå¤Ħ": 4371,
      "æĶ¯éĵħç¬Ķ": 4372,
      "ç¬¬äºĮä¸ª": 4373,
      "é¥ª": 4374,
      "æ³°åĿ¦å°¼åħĭ": 4375,
      "åı¯ä»¥æıĲé«ĺ": 4376,
      "æĬ¼": 4377,
      "ä¸Ńæľī": 4378,
      "çĥ¹é¥ª": 4379,
      "æī¼è¦ģ": 4380,
      "åħ·å¤ĩ": 4381,
      "çļĦåĲĮä¹īè¯į": 4382,
      "è°·æŃĮ": 4383,
      "æ³°åĿ¦å°¼åħĭåı·": 4384,
      "æ³½": 4385,
      "âĢĺ": 4386,
      "å¸¦æĿ¥äºĨ": 4387,
      "|>âĢľ": 4388,
      "åĮºåŁŁ": 4389,
      "èģĬèģĬ": 4390,
      "æłĸ": 4391,
      "æľ¬å°ıè¯´": 4392,
      "æĤ²ä¼¤": 4393,
      "ç»ĵæĿŁ": 4394,
      "æĪĳè§īå¾Ĺ": 4395,
      "èµİ": 4396,
      "åħįçĸ«": 4397,
      "æ³¢çī¹": 4398,
      "éī": 4399,
      "è®¤è¯Ĩ": 4400,
      "ç½ĳä¸Ĭ": 4401,
      "çļĦæŃĮæĽ²": 4402,
      "æĿľ": 4403,
      "âĢĻ": 4404,
      "ä¿Ħ": 4405,
      "ä»¥ä¸ĭéĹ®é¢ĺ": 4406,
      "æľªçŁ¥": 4407,
      "ä½łåı¯ä»¥å°Ŀè¯ķ": 4408,
      "åĢį": 4409,
      "ä¸¤ä¸ªåı¥åŃĲæĺ¯åĲ¦": 4410,
      "è®¯": 4411,
      "ä¸ĢçĤ¹": 4412,
      "åĴĮæľĭåıĭ": 4413,
      "åĪºæ¿Ģ": 4414,
      "è¿Ļä»½": 4415,
      "å¯¹ç»Ļå®ļçļĦ": 4416,
      "é¡µ": 4417,
      "å¤§å°ı": 4418,
      "æıĲåıĸæĸĩç«łä¸ŃçļĦ": 4419,
      "è·¯çº¿": 4420,
      "å¯º": 4421,
      "åĽ¾åĥıè¯ĨåĪ«": 4422,
      "ä»°": 4423,
      "è¿ĺéľĢè¦ģ": 4424,
      "æĸľ": 4425,
      "è´´": 4426,
      "è¿ħéĢŁ": 4427,
      "åŃĲåĴĮ": 4428,
      "éķ¿åŁİ": 4429,
      "åį¢": 4430,
      "ç¢³æİĴæĶ¾": 4431,
      "è·ĥ": 4432,
      "ä¸°å¯ĮçļĦ": 4433,
      "ç®Ģæĺİæī¼è¦ģ": 4434,
      "Ġæııè¿°": 4435,
      "å¸Ĥä¸Ńå¿ĥ": 4436,
      "è¾ħåĬ©": 4437,
      "æĢĿå¿µ": 4438,
      "æļĤ": 4439,
      "ä¹ĥ": 4440,
      "ç¬¬ä¸Ģä¸ª": 4441,
      "åĳ½åĲįå®ŀä½ĵè¯ĨåĪ«": 4442,
      "è¾Ľ": 4443,
      "ä¸ªæľĪ": 4444,
      "ç¼ĸç¨ĭè¯Ńè¨Ģ": 4445,
      "è¿ĩåº¦": 4446,
      "åİĺ": 4447,
      "äºļæ´²": 4448,
      "è®²è¿°äºĨä¸Ģä¸ª": 4449,
      "ä¸Ģçīĩ": 4450,
      "ç³Łç³ķ": 4451,
      "èĭį": 4452,
      "è¢«åĬ¨è¯ŃæĢģ": 4453,
      "é¸ŁåĦ¿": 4454,
      "11": 4455,
      "éķ¿æľŁ": 4456,
      "çĲĨè®º": 4457,
      "åİĤ": 4458,
      "æ¢¨": 4459,
      "æĤ¨å¥½": 4460,
      "åı¥åŃĲä¸ŃçļĦ": 4461,
      "äººåĲįåĴĮ": 4462,
      "èĤ¯å®ļ": 4463,
      "çľŁå®ŀ": 4464,
      "å°±åı¯ä»¥": 4465,
      "å®¤åĨħ": 4466,
      "éĶĢåĶ®é¢Ŀ": 4467,
      "çī¹æ®Ĭ": 4468,
      "è°ĭ": 4469,
      "éī´": 4470,
      "èĩªä¸»": 4471,
      "æķ°æį®åĪĨæŀĲ": 4472,
      "åģ¶": 4473,
      "ä¸ºåħ¶": 4474,
      "åĨ¬åŃ£": 4475,
      "æĪĳæĺ¯": 4476,
      "åı¦ä¸Ģä¸ª": 4477,
      "è¯¦ç»ĨçļĦ": 4478,
      "çº¢æ¥¼": 4479,
      "å¤ªéĺ³èĥ½": 4480,
      "å¼ķäºº": 4481,
      "åľ°çĲĥçļĦ": 4482,
      "æ´ĽæĿī": 4483,
      "ç§ĳå¹»å°ıè¯´": 4484,
      "å£ģ": 4485,
      "åľ°åĽ¾": 4486,
      "å°ıæĺİåĴĮ": 4487,
      "èĬĤæĹ¥": 4488,
      "2022": 4489,
      "çķªèĮĦ": 4490,
      "è¿ĳå¹´æĿ¥": 4491,
      "ä¸ĭéĿ¢è¿Ļåı¥è¯Ŀ": 4492,
      "æ¬¡æķ°": 4493,
      "è®²ä¸Ģä¸ª": 4494,
      "æ´ĽæĿīçŁ¶": 4495,
      "èµĸ": 4496,
      "ç°": 4497,
      "æ¶¯": 4498,
      "é¸Łç±»": 4499,
      "çļĦåĬ¨çī©": 4500,
      "ç§°ä¸º": 4501,
      "æĥ³åİ»": 4502,
      "é»Ħèī²": 4503,
      "ä¾¯": 4504,
      "æĲľç´¢å¼ķæĵİ": 4505,
      "è¯·æ±Ĥ": 4506,
      "åı¯ä»¥æĺ¯": 4507,
      "éĢĽ": 4508,
      "ä¸Ńå¤®": 4509,
      "çĽĴ": 4510,
      "ä½¿åħ¶æĽ´ç®Ģæ´ģ": 4511,
      "éĿŀå¸¸æľīè¶£": 4512,
      "åħħæ»¡äºĨ": 4513,
      "æł¹æį®æıĲä¾ĽçļĦæĸĩæľ¬": 4514,
      "çĶŁç´ł": 4515,
      "ä¸Ńæī¾åĪ°": 4516,
      "éĩįå¤§": 4517,
      "æııè¿°äºĨ": 4518,
      "éĺĶ": 4519,
      "è¿ĳä¹īè¯į": 4520,
      "éŃĶæ³ķ": 4521,
      "åĴĮæĮĳæĪĺ": 4522,
      "ä¸ªåŃĹç¬¦": 4523,
      "å¾Ĳ": 4524,
      "éĻ¶": 4525,
      "æ£Ģæµĭ": 4526,
      "éŃĤ": 4527,
      "æľºç¥¨": 4528,
      "æİ¨èįĲä¸Ģæľ¬": 4529,
      "æģ¨": 4530,
      "é£ŁçĶ¨": 4531,
      "éĹ®çŃĶ": 4532,
      "åĲĥé¥Ń": 4533,
      "æĺı": 4534,
      "ä¸ªåįķè¯į": 4535,
      "åĲŁ": 4536,
      "æĺ¯äººç±»": 4537,
      "åĩºä¸Ģä¸ª": 4538,
      "éĶ¦": 4539,
      "ä»ĸä»¬åľ¨": 4540,
      "æ²¿": 4541,
      "æĽ¿ä»£": 4542,
      "ä»İè¿Ļç¯ĩæĸĩç«łä¸Ń": 4543,
      "éªĳèĩªè¡Įè½¦": 4544,
      "éĩįè§Ĩ": 4545,
      "çĶµå½±è¯Ħè®º": 4546,
      "æĽ´å¤ļä¿¡æģ¯": 4547,
      "è¡¨éĿ¢": 4548,
      "è½¬åĮĸä¸º": 4549,
      "åŁºåĽł": 4550,
      "å¤ıå¤©çļĦ": 4551,
      "æ°¸è¿ľ": 4552,
      "å¤·": 4553,
      "éľŀ": 4554,
      "ä¸Ĭæĺł": 4555,
      "æķĳèµİ": 4556,
      "åĽłä¸ºå®ĥä»¬": 4557,
      "è£ģ": 4558,
      "åģ¥èº«æĪ¿": 4559,
      "å¤§éĩıçļĦ": 4560,
      "çļĦä¸Ģç§į": 4561,
      "æľĢå¤§": 4562,
      "åħ¶ä¸ŃåĮħæĭ¬": 4563,
      "åĭĩæķ¢": 4564,
      "éĿŀæ´²": 4565,
      "æĪĲä¸Ģåı¥è¯Ŀ": 4566,
      "ãĢĳ": 4567,
      "åľ¨è¿ĩåİ»": 4568,
      "çľĭäºĨä¸Ģ": 4569,
      "æ¼Ĥäº®çļĦ": 4570,
      "ãĢĲ": 4571,
      "æħĪ": 4572,
      "èĢĮä¸įæĺ¯": 4573,
      "åĩıå°ĳæ±¡æŁĵ": 4574,
      "åŃĶ": 4575,
      "è®¡ç®Ĺæľºè§Ĩè§ī": 4576,
      "æĹģ": 4577,
      "èĬ¬": 4578,
      "åħħè¶³": 4579,
      "ä»Ķ": 4580,
      "ä»¥èİ·åıĸ": 4581,
      "èħĲ": 4582,
      "ä¸ĩçī©": 4583,
      "çīĽèĤī": 4584,
      "çº¢æ¥¼æ¢¦": 4585,
      "æĪĳæľĢåĸľæ¬¢çļĦ": 4586,
      "èĮ¨": 4587,
      "å½ĵæĪĳ": 4588,
      "è¿«": 4589,
      "å°ıçĮ«": 4590,
      "çĪ±çļĦ": 4591,
      "é»ĳèī²": 4592,
      "çĶŁæĪĲåķĨåĵģæĸĩæ¡Ī": 4593,
      "èĬĤçĽ®": 4594,
      "æĺĵè¯»": 4595,
      "åıĤèĢĥ": 4596,
      "çĽĹ": 4597,
      "æİªæĸ½æĿ¥": 4598,
      "æĦŁåıĹåĪ°": 4599,
      "ä½łä»¬": 4600,
      "å»·": 4601,
      "æłĳåı¶": 4602,
      "æŀ«åı¶": 4603,
      "æ©ĺ": 4604,
      "åīª": 4605,
      "åľ¨æĪĳ": 4606,
      "æĿ¥çļĦ": 4607,
      "åĽŀçŃĶæĤ¨çļĦéĹ®é¢ĺ": 4608,
      "è¿Ļæĺ¯ä¸Ģæ®µ": 4609,
      "éĻª": 4610,
      "åľ°åĿĢ": 4611,
      "åĨħçļĦ": 4612,
      "åºĨç¥Ŀ": 4613,
      "èĴ¸": 4614,
      "è·¨": 4615,
      "åĩºçİ°çļĦ": 4616,
      "èĤĸçĶ³": 4617,
      "å®¶çļĦ": 4618,
      "ä¸»é¢ĺæĺ¯": 4619,
      "çİ¯å¢ĥéĹ®é¢ĺ": 4620,
      "å¹¶è¿Ľè¡Į": 4621,
      "æĨ": 4622,
      "æĮĩåįĹ": 4623,
      "åģļèµ·": 4624,
      "æİ¢éĻ©": 4625,
      "åį±éĻ©": 4626,
      "åĩıè½»åİĭåĬĽ": 4627,
      "æ¸¸å®¢": 4628,
      "çļĦä»»åĬ¡": 4629,
      "è¿ĳæľŁ": 4630,
      "ä¸ĵæ³¨": 4631,
      "ç»´æĬ¤": 4632,
      "æııè¿°ä¸Ģä¸ĭ": 4633,
      "ç»Ħç»ĩåĲį": 4634,
      "æ±¤å§Ĩ": 4635,
      "å¤§åľ°": 4636,
      "æĸĩåĮĸåĴĮ": 4637,
      "XX": 4638,
      "ä½łåĸľæ¬¢": 4639,
      "çĮª": 4640,
      "è§£åĨ³éĹ®é¢ĺ": 4641,
      "åĳĪçİ°": 4642,
      "å¤±è´¥": 4643,
      "èħ¾": 4644,
      "è¿Ļåº§": 4645,
      "çĶµå½±åĲįç§°": 4646,
      "ç¿Ķ": 4647,
      "çĶļèĩ³": 4648,
      "è¯·éļıæĹ¶": 4649,
      "åıªèĥ½": 4650,
      "âĢ¦âĢ¦": 4651,
      "èĺ": 4652,
      "åĴĮå¹³": 4653,
      "åĩºçİ°äºĨ": 4654,
      "åĴĮåºĶçĶ¨": 4655,
      "è¡¬": 4656,
      "å½¢çļĦ": 4657,
      "éĩİçĶŁ": 4658,
      "æıŃ": 4659,
      "æ¶ĪèĢĹ": 4660,
      "çļĦè¯Ńä¹ī": 4661,
      "äºĭæķħ": 4662,
      "åīĤ": 4663,
      "å¤ĸå¥Ĺ": 4664,
      "åĴĮæĪĳ": 4665,
      "æ°ĽåĽ´": 4666,
      "500": 4667,
      "èĥľåĪ©": 4668,
      "é»ĳæ´ŀ": 4669,
      "æ´Ĵ": 4670,
      "å¤ªç©ºæİ¢ç´¢": 4671,
      "åĪĢ": 4672,
      "åľ¨æľªæĿ¥": 4673,
      "æ¾³": 4674,
      "çĶŁæĪĲä¸Ģä¸ªåĮħåĲ«": 4675,
      "æĻ®åıĬ": 4676,
      "ç»¼": 4677,
      "éĿŀå¸¸éĩįè¦ģ": 4678,
      "çĶŁæĪĲä¸Ģä¸ªç®ĢçŁŃçļĦ": 4679,
      "ç£¨": 4680,
      "æķĮ": 4681,
      "æĪĲåĬŁçļĦ": 4682,
      "æĺİæľĪ": 4683,
      "åº¦çļĦ": 4684,
      "æ¯ıå¤©æĹ©ä¸Ĭ": 4685,
      "çĥĤ": 4686,
      "æĢĴ": 4687,
      "å¾Īä¸įéĶĻ": 4688,
      "éĺ»": 4689,
      "åºĻ": 4690,
      "å¸®åĬ©ä½ł": 4691,
      "å¦Īå¦Ī": 4692,
      "å½ĵæĹ¶": 4693,
      "åĵ²åŃ¦": 4694,
      "å±ķçİ°": 4695,
      "ä½¿çĶ¨çļĦ": 4696,
      "å¾Īæľīè¶£": 4697,
      "çĥŃæĥħ": 4698,
      "é¢ĨåŁŁçļĦåºĶçĶ¨": 4699,
      "ä½łæľĢåĸľæ¬¢çļĦ": 4700,
      "èĬĴ": 4701,
      "æĤ¨åı¯ä»¥åľ¨": 4702,
      "åħĭçļĦæķĳèµİ": 4703,
      "æĢİä¹Īè¯´": 4704,
      "åĩıå°ĳä½¿çĶ¨": 4705,
      "èĤĸçĶ³åħĭçļĦæķĳèµİ": 4706,
      "ä¸įåĪ°": 4707,
      "èĭ±éĽĦ": 4708,
      "å¤º": 4709,
      "ä¼ĳéĹ²": 4710,
      "ç²®": 4711,
      "çĭ®åŃĲ": 4712,
      "åĲĦåľ°": 4713,
      "æľĢåĸľæ¬¢çļĦçĶµå½±": 4714,
      "äº§ä¸ļ": 4715,
      "çĶŁæ´»çļĦ": 4716,
      "ä½Ĩæĺ¯æĪĳ": 4717,
      "åıĳéĢģ": 4718,
      "å¿ĺè®°": 4719,
      "å±ħæ°ĳ": 4720,
      "éĥ½åľ¨": 4721,
      "èĥŀ": 4722,
      "æĺ¯åĲ¦æľī": 4723,
      "ä¸ĭèģĶ": 4724,
      "çģ«æĺŁ": 4725,
      "åĲįçļĦ": 4726,
      "æł¼å¼ı": 4727,
      "ç»µ": 4728,
      "æģ¶åĬ£": 4729,
      "éĽ¾": 4730,
      "å¥½çľĭçļĦçĶµå½±": 4731,
      "æĬĵ": 4732,
      "ä¼ļæľī": 4733,
      "ä¸ºä¸Ģç¯ĩ": 4734,
      "è¯·çĶ¨ä¸Ģåı¥è¯Ŀ": 4735,
      "æĸ°çļĦåı¥åŃĲ": 4736,
      "éĶ»çĤ¼èº«ä½ĵ": 4737,
      "åĿĩè¡¡": 4738,
      "æµ·å¹³éĿ¢ä¸Ĭåįĩ": 4739,
      "å¾¡": 4740,
      "ä¸ĭä¸Ģä¸ª": 4741,
      "ä¸įåĸľæ¬¢": 4742,
      "åĩºçĶŁ": 4743,
      "çļĦæľįåĬ¡": 4744,
      "å§¿": 4745,
      "æľªæĿ¥åıĳå±ķ": 4746,
      "æĪĳçļĦæľĭåıĭ": 4747,
      "ä»Ĭå¤©æĹ©ä¸Ĭ": 4748,
      "å°Ĩä¸ĭéĿ¢åı¥åŃĲ": 4749,
      "æĻºèĥ½åĮĸ": 4750,
      "åĽłä¸ºå¤©æ°Ķ": 4751,
      "åĪ·": 4752,
      "éĿŀå¸¸æľī": 4753,
      "äºŃ": 4754,
      "åĮĹäº¬çļĦå¤©æ°Ķ": 4755,
      "æ··åĲĪ": 4756,
      "çī©çĲĨåŃ¦": 4757,
      "å¿ĥçĲĨåģ¥åº·": 4758,
      "å¤§å¤ļæķ°": 4759,
      "ç¡®è®¤": 4760,
      "åłµ": 4761,
      "äººå£«": 4762,
      "ä»İä»¥ä¸ĭæĸĩæľ¬": 4763,
      "æıĴ": 4764,
      "æĪĳéĿŀå¸¸åĸľæ¬¢": 4765,
      "åı¯è¯»æĢ§": 4766,
      "æī°": 4767,
      "æģ°": 4768,
      "æł¹æį®èĩªå·±çļĦ": 4769,
      "ä½Ĩå¥¹": 4770,
      "åħĦ": 4771,
      "çľĭäºĨ": 4772,
      "æĤ¨æīĢåľ¨": 4773,
      "ä»¥ä¸ĭæĺ¯ä¸Ģéģĵ": 4774,
      "çļĦä¸»æĹ¨": 4775,
      "å¯¸": 4776,
      "è§£éĩĬä¸Ģä¸ĭ": 4777,
      "å°Ĩä»¥ä¸ĭåı¥åŃĲä¸ŃçļĦ": 4778,
      "å¤§çĨĬçĮ«": 4779,
      "å¤§èĦĳ": 4780,
      "çĶŁæĪĲæĳĺè¦ģ": 4781,
      "äºĴåĬ¨": 4782,
      "å»ºè®®ä½ł": 4783,
      "æĸ°åĨł": 4784,
      "å¦Ĥä½ķåľ¨": 4785,
      "åĪĨåĪ«æĺ¯": 4786,
      "å°¼äºļ": 4787,
      "å¿ħè¦ģçļĦ": 4788,
      "åŃ¦ä¼ļ": 4789,
      "çĽĪ": 4790,
      "å¹¿æ³ĽåºĶçĶ¨": 4791,
      "ä¸ĢçĽ´åľ¨": 4792,
      "ç§»åĬ¨": 4793,
      "åĩ¤": 4794,
      "äºİæĺ¯": 4795,
      "åı«åģļ": 4796,
      "æĹ¶åĪ»": 4797,
      "ä½łçŁ¥éģĵ": 4798,
      "è¢«è®¤ä¸º": 4799,
      "æľŁå¾ħ": 4800,
      "æĶ¾æĿ¾èº«å¿ĥ": 4801,
      "æİ¨èįĲä¸Ģéĥ¨": 4802,
      "æļĳ": 4803,
      "17": 4804,
      "åĨħå¿ĥ": 4805,
      "åħħåĪĨ": 4806,
      "äº§åĵģçļĦ": 4807,
      "æĬĬè¿Ļåı¥è¯Ŀç¿»è¯ĳæĪĲæĸĩè¨Ģæĸĩ": 4808,
      "çļĦä½įç½®": 4809,
      "èĸ¯": 4810,
      "åħ¼": 4811,
      "éĤĢ": 4812,
      "æĬµ": 4813,
      "åĲĥçļĦ": 4814,
      "ä½¿åħ¶æĽ´æĺĵäºİçĲĨè§£": 4815,
      "çĶ·åŃĲ": 4816,
      "çļĦç»ĵæŀľ": 4817,
      "åı¯ä»¥èĢĥèĻĳ": 4818,
      "ç¿©": 4819,
      "æłĩå¿Ĺ": 4820,
      "æ»´": 4821,
      "èģĮä½į": 4822,
      "å°ıåŃ¦æķ°åŃ¦é¢ĺ": 4823,
      "æĿİåįİ": 4824,
      "æłĩè®°": 4825,
      "848": 4826,
      "å¹¶è¦ģæ±Ĥ": 4827,
      "ä½ľä¸ºAIè¯Ńè¨Ģæ¨¡åŀĭ": 4828,
      "\"ï¼Į": 4829,
      "ä»İä»¥ä¸ĭ": 4830,
      "æ¸ħæĸ°": 4831,
      "éĺĲ": 4832,
      "æ¼«æŃ¥": 4833,
      "åĩĮ": 4834,
      "è®¾æĸ½": 4835,
      "è¿Ŀ": 4836,
      "è´¤": 4837,
      "æĸĳ": 4838,
      "åĩºèī²çļĦ": 4839,
      "æ£ĴäºĨ": 4840,
      "åĲ¬è¯´": 4841,
      "ä¹Łæľī": 4842,
      "åĿĲåľ¨": 4843,
      "ç¼ĵè§£åİĭåĬĽ": 4844,
      "æĺĤ": 4845,
      "é¦Ī": 4846,
      "ä»¥ä¸ĭæĺ¯ä¸Ģéģĵå°ıåŃ¦æķ°åŃ¦é¢ĺ": 4847,
      "æŁł": 4848,
      "å½ĵä½ł": 4849,
      "ä»İæĸĩç«łä¸Ń": 4850,
      "é£İæļ´": 4851,
      "æĽ´æĸ°": 4852,
      "è¿Ļä¸ªåŁİå¸Ĥ": 4853,
      "å²ģæľĪ": 4854,
      "è°Ĭ": 4855,
      "å¤ªæ£ĴäºĨ": 4856,
      "æĺ¯æľĢ": 4857,
      "å¾ªçİ¯": 4858,
      "æĽ¹": 4859,
      "æł¹æį®ç»Ļå®ļçļĦåı¥åŃĲ": 4860,
      "æĬĬè¿Ļåı¥è¯Ŀç¿»è¯ĳæĪĲçİ°ä»£æĸĩ": 4861,
      "åŃĹç¬¦ä¸²": 4862,
      "åĲįä¸º": 4863,
      "ä¸ºä»¥ä¸ĭåı¥åŃĲ": 4864,
      "æķĪçİĩåĴĮ": 4865,
      "æª¬": 4866,
      "æµħ": 4867,
      "è¿ĩäºĨ": 4868,
      "æĪĳæĹłæ³ķæıĲä¾Ľ": 4869,
      "å°Ĭéĩį": 4870,
      "è«": 4871,
      "æī£": 4872,
      "åĽĽä¸ª": 4873,
      "æĦĪ": 4874,
      "åı¤ä»£æĢİä¹Īè¯´": 4875,
      "æĦŁæŁĵ": 4876,
      "è¿Ļæĺ¯ä¸Ģç¯ĩåħ³äºİ": 4877,
      "ä½ľè¯Ĺ": 4878,
      "æĶ¹åĨĻä»¥ä¸ĭåı¥åŃĲ": 4879,
      "ãĢĭãĢĤ<|": 4880,
      "çĶµæ±ł": 4881,
      "æĪ¿åŃĲ": 4882,
      "ä»İä½ł": 4883,
      "ä»¥ç¡®ä¿Ŀ": 4884,
      "å¤§åĨĻ": 4885,
      "é¸¡èĤī": 4886,
      "æŁłæª¬": 4887,
      "æııç»ĺ": 4888,
      "ï¼īï¼Į": 4889,
      "çŁ¿": 4890,
      "æ¶¨": 4891,
      "ä»Ĭå¤©æĺ¯": 4892,
      "æĪĳåı¯ä»¥ä¸ºæĤ¨": 4893,
      "å°¤åħ¶æĺ¯": 4894,
      "ä¼¼ä¹İ": 4895,
      "å¡ĳæĸĻè¢ĭ": 4896,
      "æĬ¼éŁµ": 4897,
      "ç»Ļå®ļä¸¤ä¸ªåı¥åŃĲ": 4898,
      "ç©¿è¶Ĭ": 4899,
      "çĶ¨æ°´": 4900,
      "å°ıé¸Ł": 4901,
      "åĪ¶åĵģ": 4902,
      "æĪĳä»¬çļĦçĶŁæ´»": 4903,
      "éł": 4904,
      "ä½¿ä¹ĭ": 4905,
      "çĸĳéĹ®åı¥": 4906,
      "æı´": 4907,
      "æĹĹ": 4908,
      "ç¡®å®ŀ": 4909,
      "çĪ¶æ¯į": 4910,
      "æĦıåĳ³": 4911,
      "æĶ»åĩ»": 4912,
      "æĺ¯åĽłä¸º": 4913,
      "å¤§æĪĺ": 4914,
      "å§Ĳ": 4915,
      "ä¸ĭéĿ¢çļĦ": 4916,
      "æ½ľåľ¨": 4917,
      "åıĳè¡¨": 4918,
      "äºĭä¸ļ": 4919,
      "ç¢İ": 4920,
      "æİ¥ç§į": 4921,
      "å¦¹": 4922,
      "å¾Īå¤§çļĦ": 4923,
      "åĮĹæŀģ": 4924,
      "æ°Ķæģ¯": 4925,
      "èµĦæĸĻ": 4926,
      "åĩ¯": 4927,
      "èµ¶": 4928,
      "å¦»": 4929,
      "çĶŁéķ¿": 4930,
      "è¡ĮçļĦ": 4931,
      "çº¤": 4932,
      "æĽ´å®¹æĺĵ": 4933,
      "äº¤éĢļå·¥åħ·": 4934,
      "è¯·ä»İæĸĩç«łä¸ŃæıĲåıĸ": 4935,
      "æ§": 4936,
      "æĪĲåĪĨ": 4937,
      "æĿİåĽĽ": 4938,
      "hon": 4939,
      "æĪĳè¦ģ": 4940,
      "çĶŁæĪĲä¸Ģæ®µ": 4941,
      "æııè¿°ä¸Ģä¸ª": 4942,
      "åįĹæŀģ": 4943,
      "çĽĳç®¡": 4944,
      "åı¯ä»¥ä½¿çĶ¨": 4945,
      "èĮ«": 4946,
      "åŀĥåľ¾éĤ®ä»¶": 4947,
      "çļĦçłĶç©¶": 4948,
      "åĭĥ": 4949,
      "éĩĩåıĸè¡ĮåĬ¨": 4950,
      "æŀ¯": 4951,
      "å·¥ç¨ĭå¸Ī": 4952,
      "è¢Ń": 4953,
      "ç§Ł": 4954,
      "çĶŁæĪĲä¸Ģåı¥": 4955,
      "äººå·¥æĻºèĥ½åľ¨åĮ»çĸĹ": 4956,
      "å®ĮæĪĲäºĨ": 4957,
      "æ£ĭ": 4958,
      "åĽłæŃ¤æĹłæ³ķ": 4959,
      "åĽŀå¿Ĩ": 4960,
      "åĴĮæĹ¶éĹ´": 4961,
      "åİĮ": 4962,
      "å°ıçļĦ": 4963,
      "å¼Ĺ": 4964,
      "èµł": 4965,
      "è§Ĥå¯Ł": 4966,
      "ä¸Ĭæľī": 4967,
      "éģ£": 4968,
      "åľĪ": 4969,
      "å¤§åŀĭ": 4970,
      "èĥ¸": 4971,
      "äºĨä¸Ģå®¶": 4972,
      "æĺ¥é£İ": 4973,
      "ä¸ĩéĩĮ": 4974,
      "è¿Ļç¯ĩæĸĩç«łçļĦä¸»æĹ¨": 4975,
      "å¤©ä¸ĭ": 4976,
      "åķĨåĬ¡": 4977,
      "äºĮæ°§åĮĸ": 4978,
      "éĺ²æĻĴ": 4979,
      "æĶĢ": 4980,
      "ç¾İå¦Ļ": 4981,
      "å¸½": 4982,
      "æ¯«": 4983,
      "æŃ£å¸¸": 4984,
      "åıĸæ¶ĪäºĨ": 4985,
      "çļĦå®ļä¹ī": 4986,
      "è¯¥æĸĩç«ł": 4987,
      "ç»´çĶŁç´ł": 4988,
      "çĽ´åĪ°": 4989,
      "é©±": 4990,
      "éĻĪè¿°åı¥": 4991,
      "æĬ½åıĸåĩºæĸĩä¸ŃæīĢæľīçļĦå®ŀä½ĵä¸įåŃĺåľ¨å®ŀä½ĵ": 4992,
      "å°¿": 4993,
      "æĸĩç«łä¸ŃæıĲåĪ°çļĦ": 4994,
      "å¥¹åľ¨": 4995,
      "ä¸Ģæ¬¡æĢ§": 4996,
      "å°±ä¼ļ": 4997,
      "æĦ¿æĦı": 4998,
      "èĤĮèĤī": 4999,
      "ä»ĩ": 5000,
      "å¾Īé«ĺåħ´": 5001,
      "èĬĤèĥ½": 5002,
      "åıĸå¾ĹäºĨ": 5003,
      "éĻ·": 5004,
      "äººå·¥æĻºèĥ½åºĶçĶ¨": 5005,
      "åįļå®¢": 5006,
      "åħĭæľį": 5007,
      "èµ·åºĬ": 5008,
      "åľ¨ç»Ļå®ļçļĦæĸĩæľ¬ä¸Ń": 5009,
      "è§£è¯»": 5010,
      "çĬ¯ç½ª": 5011,
      "åįģäºĮ": 5012,
      "ä¸īè§Ĵ": 5013,
      "æ³¥": 5014,
      "ä¿ĿæĮģåģ¥åº·": 5015,
      "ä¼Ĳ": 5016,
      "æĽ´å¿«": 5017,
      "åĪĨæŀĲåĴĮ": 5018,
      "ç«Ł": 5019,
      "åĬŀåħ¬å®¤": 5020,
      "ä¼ĺè´¨": 5021,
      "æľīä»Ģä¹Īæĸ¹æ³ķåı¯ä»¥": 5022,
      "éĢīæĭ©ä¸Ģä¸ª": 5023,
      "ç¼ĵè§£çĦ¦èĻĳ": 5024,
      "å¼ķåıĳ": 5025,
      "èĩªèº«": 5026,
      "ä½©": 5027,
      "æĺ¯çıłç©ĨæľĹçİĽå³°": 5028,
      "éĢĨ": 5029,
      "éŃı": 5030,
      "æľīæĹ¶": 5031,
      "æĬĳ": 5032,
      "æĭĵ": 5033,
      "æ¼ı": 5034,
      "ä¸ªæĢ§åĮĸ": 5035,
      "æĬ½åıĸåĩºæĸĩæľ¬ä¸ŃçļĦ": 5036,
      "ä»ĸè¯´": 5037,
      "ä¸Ģéģį": 5038,
      "æ¯ıå¹´": 5039,
      "åº¦åĴĮ": 5040,
      "åħ¶ä»ĸçļĦ": 5041,
      "äººå·¥æĻºèĥ½çļĦåıĳå±ķ": 5042,
      "åıªè¦ģ": 5043,
      "åģļä»Ģä¹Ī": 5044,
      "æ£ī": 5045,
      "é»ĳæļĹ": 5046,
      "åĲģ": 5047,
      "24": 5048,
      "æī«": 5049,
      "æĳĨ": 5050,
      "å¹¶å°Ĩ": 5051,
      "ç¬Ķè®°": 5052,
      "é¥®é£Łä¹łæĥ¯": 5053,
      "åĽ½åĨħ": 5054,
      "åĽŀå¤į": 5055,
      "éĴĵ": 5056,
      "çĽ¸åĲĮçļĦè¯Ńä¹ī": 5057,
      "æ²®": 5058,
      "åĶ¯ä¸Ģ": 5059,
      "æĽ´åħ·ä½ĵçļĦä¿¡æģ¯": 5060,
      "ä¼ı": 5061,
      "å½±çīĩ": 5062,
      "éĹ¹": 5063,
      "æŁĶè½¯": 5064,
      "è´¸æĺĵ": 5065,
      "çİ©åħ·": 5066,
      "13": 5067,
      "ãĢĤãĢĬ": 5068,
      "å¤ļæł·æĢ§": 5069,
      "æ¡ĮåŃĲ": 5070,
      "æĽ´åħ·ä½ĵçļĦ": 5071,
      "AIæĬĢæľ¯": 5072,
      "äººä½ĵ": 5073,
      "ä¿ĿéĻ©": 5074,
      "çĶŁåĳ½çļĦ": 5075,
      "è¯ĨåĪ«åĩºä¸Ĭæĸĩ": 5076,
      "èĢģèĻİ": 5077,
      "å®ģéĿĻ": 5078,
      "æĸĩæ¡£": 5079,
      "æł¹æį®çĶ¨æĪ·": 5080,
      "æľĪäº®": 5081,
      "é¢Ī": 5082,
      "å¾Īå¤ļäºº": 5083,
      "åĪ¤æĸŃä¸ĭéĿ¢": 5084,
      "è¿ģ": 5085,
      "åģ·": 5086,
      "å¾Ĺå¾Ī": 5087,
      "å¯Įæľī": 5088,
      "åıĹä¼¤": 5089,
      "çīĩæ®µ": 5090,
      "åĨ¬å¤©": 5091,
      "æĪĳçİ°åľ¨": 5092,
      "æŀģæĢ§": 5093,
      "èİī": 5094,
      "çļĦè¯Ŀé¢ĺ": 5095,
      "åľ¨éĤ£éĩĮ": 5096,
      "çļĦæİªæĸ½": 5097,
      "äººç±»æĻºèĥ½": 5098,
      "éģĵè·¯": 5099,
      "æ»ļ": 5100,
      "åŃ¦ç§ĳ": 5101,
      "è°ĵè¯Ń": 5102,
      "14": 5103,
      "çĽĳçĿ£": 5104,
      "æī®": 5105,
      "è¡°": 5106,
      "è´§å¸ģ": 5107,
      "æĢ§æł¼": 5108,
      "çļĦæĥħç»ª": 5109,
      "å®¢æ°Ķ": 5110,
      "...": 5111,
      "å¼¦": 5112,
      "åĩĿ": 5113,
      "çķĻä¸ĭ": 5114,
      "èģĶçĽŁ": 5115,
      "å¤±æľĽ": 5116,
      "æ¯ģ": 5117,
      "åıįé¦Ī": 5118,
      "è¿Ļæĺ¯ä¸Ģéĥ¨": 5119,
      "Ŀåįľ": 5120,
      "åľ°åĮºçļĦ": 5121,
      "è¿Ľè¡ĮäºĨ": 5122,
      "æŃ¥è¡Į": 5123,
      "ä¸įçŁ¥": 5124,
      "ä¸Ģéģĵ": 5125,
      "è¯·ä»İè¿Ļç¯ĩæĸĩç«łä¸ŃæıĲåıĸåĩº": 5126,
      "æ¶µçĽĸ": 5127,
      "çļĦéĥ¨åĪĨ": 5128,
      "é¹¤": 5129,
      "ä»¥æĿ¥": 5130,
      "åĭĩæ°Ķ": 5131,
      "åĴĮç¤¾ä¼ļ": 5132,
      "å¹³æĸ¹": 5133,
      "è¿Ļä¹Ī": 5134,
      "æĺ¯æĪĳä»¬": 5135,
      "å½¢è±¡": 5136,
      "æľīæķĪåľ°": 5137,
      "ä¹ĭæĹħ": 5138,
      "çĲĥéĺŁ": 5139,
      "çı¾": 5140,
      "çĵ¦": 5141,
      "æĸĩæľ¬ä¸ŃçļĦéĶĻè¯¯": 5142,
      "è¿Ļä»¶": 5143,
      "ä¼ģé¹ħ": 5144,
      "ä¸¤ä¸ªåı¥åŃĲæĺ¯åĲ¦è¡¨è¾¾äºĨ": 5145,
      "è½»è½»": 5146,
      "æĬ½åıĸåĩºä¸ĭæĸĩ": 5147,
      "ä¹Ķæ²»": 5148,
      "æĺ¯éĿŀå¸¸": 5149,
      "çĭ¼": 5150,
      "æĥ«": 5151,
      "éĺģ": 5152,
      "åĪ¤æĸŃä¸ĭéĿ¢ä¸¤ä¸ªåı¥åŃĲæĺ¯åĲ¦è¡¨è¾¾äºĨ": 5153,
      "åĪ¤æĸŃä¸ĭéĿ¢ä¸¤ä¸ªåı¥åŃĲæĺ¯åĲ¦è¡¨è¾¾äºĨçĽ¸åĲĮçļĦè¯Ńä¹ī": 5154,
      "ï¼Ł\\": 5155,
      "çĻ½äºĳ": 5156,
      "å¾Ĺåĩº": 5157,
      "éĴ¢çĲ´": 5158,
      "ä¾į": 5159,
      "è¯ĬæĸŃåĴĮæ²»çĸĹ": 5160,
      "ä¸ĢåĪĩ": 5161,
      "åį³å°Ĩ": 5162,
      "å«Į": 5163,
      "èĩªä¿¡": 5164,
      "å¿łè¯ļ": 5165,
      "åħ¶ä¸ŃåĮħåĲ«": 5166,
      "ä¸ĵå®¶": 5167,
      "æŀĦå»º": 5168,
      "åĩłå¹´": 5169,
      "è¿ŀè´¯": 5170,
      "å®´": 5171,
      "ä¸ĭæĸĩä¸Ń": 5172,
      "éĥ½å¾Ī": 5173,
      "åĨįæ¬¡": 5174,
      "è¿ĲåĬ¨åĳĺ": 5175,
      "å·®å¼Ĥ": 5176,
      "åīĳ": 5177,
      "æ´¾å¯¹": 5178,
      "åİ»çľĭçĶµå½±": 5179,
      "çĸ²æĥ«": 5180,
      "å½¼æŃ¤": 5181,
      "ä¼łè¾¾": 5182,
      "å²Ĥ": 5183,
      "åķĨåľº": 5184,
      "çĸ²åĬ³": 5185,
      "è¯ĨåĪ«åĩºä¸Ĭæĸĩä¸ŃçļĦå®ŀä½ĵ": 5186,
      "æĸĩæľ¬åĨħå®¹": 5187,
      "ä½ĵéĩį": 5188,
      "ä¼ļè®®ä¸Ĭ": 5189,
      "èĿ´": 5190,
      "çļĦæķ°éĩı": 5191,
      "ä¸ĬåįĪ": 5192,
      "éĶģ": 5193,
      "çĪ¸": 5194,
      "åĲįè¯įçŁŃè¯Ń": 5195,
      "è®°å¾Ĺ": 5196,
      "çļĦçĶŁæ´»": 5197,
      "æĢľ": 5198,
      "æ¤ħ": 5199,
      "åİ¦": 5200,
      "å¥¹åĸľæ¬¢": 5201,
      "æģ¢": 5202,
      "æĢ§éĹ®é¢ĺ": 5203,
      "èĿ´èĿ¶": 5204,
      "æ¶īåıĬåĪ°": 5205,
      "èĪĩ": 5206,
      "äºļé©¬": 5207,
      "éĤ»": 5208,
      "åĿ¡": 5209,
      "å±ķå¼Ģ": 5210,
      "é¼»": 5211,
      "åĩ½": 5212,
      "å¥ī": 5213,
      "ç»Ĩèĥŀ": 5214,
      "åı¯éĿł": 5215,
      "æĦŁæĥħ": 5216,
      "æ¸ħæ¥ļ": 5217,
      "æıĲåĪ°çļĦ": 5218,
      "è¿Ļæľ¬å°ıè¯´": 5219,
      "æĹłèģĬ": 5220,
      "æľīéĻĲ": 5221,
      "å°ĳå¹´": 5222,
      "æĩĴ": 5223,
      "å°ıåįİ": 5224,
      "ç½©": 5225,
      "æĺ¯åĵªä¸ª": 5226,
      "å¿ĥçģµ": 5227,
      "ç¨®": 5228,
      "æĹłæ³ķç¡®å®ļ": 5229,
      "è£ħé¥°": 5230,
      "åĲİçļĦç»ĵæŀľ": 5231,
      "ä¹ĲæĦı": 5232,
      "åģļå¥½": 5233,
      "éĵº": 5234,
      "ä»»åĬ¡ä¸Ń": 5235,
      "å·¨å¤§": 5236,
      "èī°": 5237,
      "çĶľçĤ¹": 5238,
      "28": 5239,
      "ç´łé£Ł": 5240,
      "è¡¨è¾¾æĸ¹å¼ı": 5241,
      "çļĦç¬ĳè¯Ŀ": 5242,
      "éĽģ": 5243,
      "æ²®ä¸§": 5244,
      "åĪĨåŃĲ": 5245,
      "æ²Ļåıĳ": 5246,
      "ä¸ĬéĿ¢çļĦ": 5247,
      "æĮĩå®ļçļĦ": 5248,
      "åĢ¦": 5249,
      "åŃĹæ¯įé¡ºåºı": 5250,
      "ç®Ģä»ĭ": 5251,
      "å½¢çĬ¶": 5252,
      "ä¸ĭæĸĩä¸ŃåŃĺåľ¨åĵªäºĽå®ŀä½ĵ": 5253,
      "åĪ«äºº": 5254,
      "éĿ©åĳ½": 5255,
      "åį«æĺŁ": 5256,
      "éļĨ": 5257,
      "æĻ®éĢļ": 5258,
      "æĪĳä»¬å¿ħé¡»": 5259,
      "çļĦæĦŁè§ī": 5260,
      "è·ŁæĪĳ": 5261,
      "èĢģé¼ł": 5262,
      "ä»İç»Ļå®ļçļĦ": 5263,
      "åºŁå¼ĥ": 5264,
      "åĸľçĪ±": 5265,
      "ä¼ĺç¾İ": 5266,
      "é¦¨": 5267,
      "æĴ°åĨĻ": 5268,
      "æľīäºº": 5269,
      "å¼Ģè½¦": 5270,
      "åĪĽä½ľä¸Ģé¦ĸ": 5271,
      "åĢ¾åĲĳ": 5272,
      "ä½łå¯¹": 5273,
      "è§Ħå®ļ": 5274,
      "æĻ®éģį": 5275,
      "çļĦé¢ĨåŁŁ": 5276,
      "è½¦è¾Ĩ": 5277,
      "æĮ¯": 5278,
      "é£İåħī": 5279,
      "æľĢé«ĺæ°Ķæ¸©": 5280,
      "æĪĲç«ĭ": 5281,
      "æĭĮ": 5282,
      "é¦Ģ": 5283,
      "çļĦäº§åĵģ": 5284,
      "æĶ¾å¼ĥ": 5285,
      "åįĵ": 5286,
      "å¦Ĥæŀľä½łæĥ³": 5287,
      "äºļé©¬éĢĬ": 5288,
      "æķ°çĻ¾": 5289,
      "è¯´è¯Ŀ": 5290,
      "æķħäºĭæĥħèĬĤ": 5291,
      "ä¸īç§į": 5292,
      "ä¸ŃçļĦè¯Ńæ³ķéĶĻè¯¯": 5293,
      "çĻ½èī²": 5294,
      "æīĭè¡¨": 5295,
      "æııåĨĻ": 5296,
      "éĺ²æŃ¢": 5297,
      "æĦıåĳ³çĿĢ": 5298,
      "å¿ĥä¸Ń": 5299,
      "åĮĨ": 5300,
      "ä¼ļåľ¨": 5301,
      "èģĺ": 5302,
      "éĤ£è¯·éĹ®": 5303,
      "æŁ¥ä¸Ģä¸ĭ": 5304,
      "éĺĲè¿°": 5305,
      "ä½¿åħ¶æĽ´åĬłæ¸ħæĻ°": 5306,
      "åĳ¼åĲģ": 5307,
      "æĦŁåĨĴ": 5308,
      "åı¤åħ¸": 5309,
      "å¤§æķ°æį®": 5310,
      "æĬ½åıĸåĩºä¸ĭæĸĩä¸ŃçļĦå®ŀä½ĵ": 5311,
      "ç§ĳæĬĢçļĦ": 5312,
      "Ġ(": 5313,
      "å¤¹": 5314,
      "ä¼ĺæĥł": 5315,
      "å°ĨåĨĽ": 5316,
      "ç»´æĮģ": 5317,
      "åľĭ": 5318,
      "æĪĲæŀľ": 5319,
      "æĺİå¤©çļĦå¤©æ°Ķ": 5320,
      "åĶ±æŃĮ": 5321,
      "é²¸é±¼": 5322,
      "æĪĲä¸ºä¸Ģä¸ª": 5323,
      "åħĶåŃĲ": 5324,
      "åĩŃ": 5325,
      "ç¢ĳ": 5326,
      "å¿ĥèĦıçĹħ": 5327,
      "æľºåĻ¨ç¿»è¯ĳ": 5328,
      "ħåĬĽ": 5329,
      "åį¿": 5330,
      "è¿ĻäºĽéĥ½æĺ¯": 5331,
      "åıĸä»£": 5332,
      "çī©çļĦ": 5333,
      "ç½ļ": 5334,
      "åĴĸåķ¡é¦Ĩ": 5335,
      "æĬ½åıĸåĩºæĸĩæľ¬ä¸ŃçļĦå®ŀä½ĵ": 5336,
      "ä¿Ŀæļĸ": 5337,
      "çłĶç©¶åıĳçİ°": 5338,
      "åı¬": 5339,
      "åľ°éľĩ": 5340,
      "æľĢé«ĺæ¸©åº¦": 5341,
      "èĮĥåĽ´åĨħ": 5342,
      "æĪĳå¯¹": 5343,
      "æł¹æį®æĤ¨çļĦ": 5344,
      "è®©GPTæ¨¡åŀĭ": 5345,
      "çļĦé¢ľèī²": 5346,
      "æĪĲä¸ºäºĨ": 5347,
      "éĽĨä¸Ń": 5348,
      "æĽ´æľī": 5349,
      "è¸ı": 5350,
      "å°Ĩå®ĥä»¬åĲĪå¹¶æĪĲä¸Ģä¸ª": 5351,
      "å®īéĿĻ": 5352,
      "åĴĮæ°´": 5353,
      "ç½Ĺæĸ¯": 5354,
      "è¤": 5355,
      "éĤ¦": 5356,
      "ä¸ªæ©ĻåŃĲ": 5357,
      "æıĲä¾ĽçļĦæĸĩæľ¬": 5358,
      "ç¨ĭåºıåĳĺ": 5359,
      "éŀĭåŃĲ": 5360,
      "æĻ¯è§Ĥ": 5361,
      "èĽĩ": 5362,
      "åį°è±¡": 5363,
      "çŃīéĹ®é¢ĺ": 5364,
      "æľ¯è¯Ń": 5365,
      "åľ°çĲĥä¸Ĭ": 5366,
      "çŃīæĸ¹å¼ı": 5367,
      "æ¬¢ä¹Ĳ": 5368,
      "è®¤çľŁ": 5369,
      "è¿Ļéģĵ": 5370,
      "è¾ī": 5371,
      "é¦Ļæ¸¯": 5372,
      "è¿Ļæł·çļĦ": 5373,
      "æĤī": 5374,
      "æľīå¤ļå°ĳ": 5375,
      "å¿į": 5376,
      "ç©ºæ°Ķæ±¡æŁĵ": 5377,
      "é©¬æĭīéĽħ": 5378,
      "åĸľé©¬æĭīéĽħ": 5379,
      "è¯Ĺåı¥": 5380,
      "æĬķåħ¥": 5381,
      "æľĢå¤ļ": 5382,
      "è¿Ļä¸ªæĪĲè¯Ń": 5383,
      "æĪĳæľĢè¿ĳæĦŁè§ī": 5384,
      "ä¸¤ç§į": 5385,
      "èĻ½çĦ¶ä»ĸ": 5386,
      "æ³¨æĦıåĬĽ": 5387,
      "æŃ§": 5388,
      "éŁ³ä¹Ĳä¼ļ": 5389,
      "èĪªç©º": 5390,
      "ä¸ĵä¸ļçļĦ": 5391,
      "æĺİçĻ½äºĨ": 5392,
      "èĢĮä¸į": 5393,
      "æĪĳè¿ĺ": 5394,
      "çĥŃéĩı": 5395,
      "çĻ¾å¹´": 5396,
      "æĸĩæľ¬ä¸ŃåŃĺåľ¨åĵªäºĽå®ŀä½ĵ": 5397,
      "çĳ°": 5398,
      "è¯ı": 5399,
      "æĽ´ä¸º": 5400,
      "æ¡Ĥ": 5401,
      "æĻ¯è±¡": 5402,
      "è¡¬è¡«": 5403,
      "ä¸Ģä¸ªæĸ°çļĦ": 5404,
      "è¿Ľè¡Įæ¦Ĥæĭ¬": 5405,
      "åıĭè°Ĭ": 5406,
      "ä¹Łä¸į": 5407,
      "äº¤äºĴ": 5408,
      "å¤´çĹĽ": 5409,
      "çī¹åĪ«æĺ¯": 5410,
      "èıĮ": 5411,
      "è¿Ļä¸ªäºº": 5412,
      "ç¿ħ": 5413,
      "åĵĢ": 5414,
      "çļĦä¾ĭåŃĲ": 5415,
      "å°½éĩı": 5416,
      "èĢĲå¿ĥ": 5417,
      "æīĢä»¥æĪĳ": 5418,
      "çļĦçī¹çĤ¹": 5419,
      "æıĲåīį": 5420,
      "äººå·¥æĻºèĥ½æĺ¯ä¸Ģç§į": 5421,
      "ç¬¬ä¸Ģæ¬¡": 5422,
      "åĴĮå»ºè®®": 5423,
      "åĬŀæ³ķ": 5424,
      "æĺŁæĺŁ": 5425,
      "æł¹æį®ä»¥ä¸ĭè¾ĵåħ¥": 5426,
      "æī©å¤§": 5427,
      "ä¸¦": 5428,
      "ï¼ģâĢĿ": 5429,
      "æµ´": 5430,
      "æĶ¶éĽĨ": 5431,
      "çļĦä»·æł¼": 5432,
      "çĲĥåĳĺ": 5433,
      "æĹħæ¸¸çĽ®çļĦåľ°": 5434,
      "èº«ä»½": 5435,
      "æĭĸ": 5436,
      "åģ¥åº·åĴĮ": 5437,
      "èĥľåľ°": 5438,
      "çĶŁåĬ¨": 5439,
      "æīĭæ®µ": 5440,
      "å½»": 5441,
      "æĽ´åĬłç®Ģæ´ģ": 5442,
      "çģµæ´»": 5443,
      "éĺ¶æ®µ": 5444,
      "ä»ĸäºº": 5445,
      "ä¿®å¤į": 5446,
      "ç»Ļå®ļä¸Ģç»Ħ": 5447,
      "åĮ»åŃ¦å½±åĥı": 5448,
      "åİ¨æĪ¿": 5449,
      "ä¼Ļ": 5450,
      "å®ĺæĸ¹": 5451,
      "èĩ³åħ³": 5452,
      "å°Ĩä»¥ä¸ĭä¸¤ä¸ªåı¥åŃĲ": 5453,
      "ä¸ĬäºĨ": 5454,
      "æ¶Į": 5455,
      "ç§ĳå¹»çĶµå½±": 5456,
      "è§Ĵåº¦": 5457,
      "æ°´æŀľåĴĮ": 5458,
      "å¦ĤæŀľæĤ¨åĸľæ¬¢": 5459,
      "äººå·¥æĻºèĥ½æĬĢæľ¯åľ¨": 5460,
      "å¯ĤéĿĻ": 5461,
      "åı¯ä»¥è®©": 5462,
      "æĶ¹éĿ©": 5463,
      "æ»ĭ": 5464,
      "199": 5465,
      "å¤ªå¤ļ": 5466,
      "æŁ¿": 5467,
      "é£İéĽ¨": 5468,
      "è¿Ľè¡ĮçºłéĶĻ": 5469,
      "æīĭæľ¯": 5470,
      "é¬¼": 5471,
      "éĩįæĸ°ç¼ĸåĨĻä»¥ä¸ĭåı¥åŃĲ": 5472,
      "çļĦåŁºæľ¬": 5473,
      "çĽ¸å½ĵ": 5474,
      "éĺ¿çĶĺ": 5475,
      "åĲĲ": 5476,
      "å¸®å¿Ļ": 5477,
      "ç»Ļåĩºä¸Ģä¸ªåı¥åŃĲ": 5478,
      "å¼ķäººåħ¥": 5479,
      "ç¢į": 5480,
      "çº¹": 5481,
      "è¿Ľè¡Įåı¤è¯Ĺç»ŃåĨĻ": 5482,
      "åħ¨éĿ¢": 5483,
      "çĶ¨åĵģ": 5484,
      "æīĭå·¥": 5485,
      "çĩĥæĸĻ": 5486,
      "ä¸įå¤Ł": 5487,
      "åħ´è¶£çĪ±å¥½": 5488,
      "å¤ķéĺ³": 5489,
      "å¨ľ": 5490,
      "æµģè¡ĮçļĦ": 5491,
      "|>\"": 5492,
      "ä¿ĿæĬ¤æĪĳä»¬çļĦ": 5493,
      "ä¸ĬèģĶ": 5494,
      "ç»ıåħ¸çļĦ": 5495,
      "è¯·åľ¨": 5496,
      "åĪĨæĪĲ": 5497,
      "æĥ§": 5498,
      "ï¼Ł\"": 5499,
      "èĬ±å¼Ģ": 5500,
      "ä¸įéĶĻçļĦéĢīæĭ©": 5501,
      "å¼ķäººåħ¥èĥľ": 5502,
      "è®°èĢħ": 5503,
      "æ¸´": 5504,
      "æŃĮæīĭ": 5505,
      "åĺī": 5506,
      "åİŁçĲĨ": 5507,
      "åıĺéĿ©": 5508,
      "åĴĮåıĳå±ķ": 5509,
      "æĭĴ": 5510,
      "å¹½é»ĺ": 5511,
      "å®¶åĽŃ": 5512,
      "ç§įæ¤į": 5513,
      "æ¯įäº²": 5514,
      "å¹´è½»çļĦ": 5515,
      "èŁ": 5516,
      "è¯·æĬĬ": 5517,
      "çļĦä¸īä¸ª": 5518,
      "åĲĪéĢĤçļĦæłĩé¢ĺ": 5519,
      "éĸĵ": 5520,
      "æ¯Ķäºļ": 5521,
      "ä¸»é¢ĺåĴĮ": 5522,
      "âĦĥï¼Į": 5523,
      "åħ³éĹŃ": 5524,
      "Ġåħ¶ä¸Ģ": 5525,
      "äººç±»æ´»åĬ¨": 5526,
      "å¡«åĨĻ": 5527,
      "åĨĮ": 5528,
      "åĩºçīĪ": 5529,
      "çĤī": 5530,
      "åħ¨éĥ¨": 5531,
      "è¿Ī": 5532,
      "åľ°çĲĨ": 5533,
      "ä¸»äººåħ¬": 5534,
      "æģ¢å¤į": 5535,
      "æĮĩçļĦæĺ¯": 5536,
      "åİĨç¨ĭ": 5537,
      "éĹ®æĪĳ": 5538,
      "ä»£æĽ¿": 5539,
      "æ»¨": 5540,
      "è¶ħçº§": 5541,
      "æĥħæĦŁåĪĨç±»": 5542,
      "ç½Ĺé©¬": 5543,
      "ä¸įç¡®å®ļ": 5544,
      "ä½łåľ¨": 5545,
      "æĸĩç«łçļĦä¸»è¦ģè§ĤçĤ¹": 5546,
      "è¯Ńæ³ķæŃ£ç¡®": 5547,
      "åı¯ä»¥çĶ¨": 5548,
      "éĥ¡": 5549,
      "ä¸ĢåĪĻ": 5550,
      "éĿŀå¸¸åĩºèī²": 5551,
      "å¼Ĥå¸¸": 5552,
      "çļĦåĲĹ": 5553,
      "æ¯ıä¸ªäººçļĦ": 5554,
      "æĪĳåĢĳ": 5555,
      "æ¸¡": 5556,
      "èıĩ": 5557,
      "å¼ĢæĶ¾å¼ı": 5558,
      "ä½Ĩå®ĥ": 5559,
      "å¹¶ä¿ĿæĮģ": 5560,
      "é¥±": 5561,
      "æĽ´å¤ļçļĦä¿¡æģ¯": 5562,
      "å®ŀçĶ¨": 5563,
      ")<|": 5564,
      "æĪĲåĳĺ": 5565,
      "åľ°éĵģ": 5566,
      "å¯¹ä¸ĭéĿ¢çļĦæĸĩæľ¬": 5567,
      "ç²Ĵ": 5568,
      "æĭħå¿ĥ": 5569,
      "çļĦæĮĳæĪĺ": 5570,
      "æĺĨ": 5571,
      "æłĳæľ¨": 5572,
      "èĪĴéĢĤçļĦ": 5573,
      "åŁ¹åħ»": 5574,
      "ä¸ĺ": 5575,
      "æľĪçĲĥ": 5576,
      "èĭ¹æŀľåħ¬åı¸": 5577,
      "è¡ĮæĶ¿": 5578,
      "ç¨Ģ": 5579,
      "æĥĳ": 5580,
      "æ²¡æľīè¯Ńæ³ķéĶĻè¯¯": 5581,
      "æĮĩç¤º": 5582,
      "ç½ĳç«ĻæĪĸ": 5583,
      "å¹¶è¿ĶåĽŀ": 5584,
      "èµ·æºĲ": 5585,
      "çļĦæĳĦåħ¥": 5586,
      "æĺ¯æŃ£ç¡®çļĦ": 5587,
      "æĤ¨æĥ³": 5588,
      "åĩıåİĭ": 5589,
      "æĶ¶åĪ°": 5590,
      "æĿ¥äºĨ": 5591,
      "çıŃçīĻ": 5592,
      "ä¸¥æł¼": 5593,
      "ä¹ĭå¤ĸ": 5594,
      "Ġä»ĸ": 5595,
      "çĽĳæµĭ": 5596,
      "å¥½åĥı": 5597,
      "åŃ¦æľ¯": 5598,
      "è¥¿çıŃçīĻ": 5599,
      "æĪĳå¾Īé«ĺåħ´": 5600,
      "å°ıæĺİåĴĮå°ıçº¢": 5601,
      "ç²¾åĩĨ": 5602,
      "äººå·¥æĻºèĥ½çļĦåºĶçĶ¨é¢ĨåŁŁ": 5603,
      "äºĭé¡¹": 5604,
      "ç½²": 5605,
      "èĢĮå¼Ĥ": 5606,
      "æ¡ĳ": 5607,
      "èĬ±æľµ": 5608,
      "å¤įåĲĪ": 5609,
      "çİĭæĺŁ": 5610,
      "è¯·ç»Ļåĩº": 5611,
      "æ¶Īè´¹èĢħ": 5612,
      "çŁ£": 5613,
      "çĪ¶äº²": 5614,
      "æ±Ĺ": 5615,
      "çĶŁæĪĲä¸Ģä»½": 5616,
      "åĲĪéĢĤ": 5617,
      "ç®ĢåİĨ": 5618,
      "æķ°æį®çļĦ": 5619,
      "é¡¾å®¢": 5620,
      "äººéĹ´": 5621,
      "è®¡ç®Ĺæľºç¨ĭåºı": 5622,
      "é¢Ĺç³ĸæŀľ": 5623,
      "å¹´è½»äºº": 5624,
      "æıĲåıĸåĩºæĿ¥": 5625,
      "æĪĳå¸ĮæľĽ": 5626,
      "å¹´ä»£": 5627,
      "åĪ©æ¶¦": 5628,
      "ä¼ļå¯¼èĩ´": 5629,
      "éľĢè¦ģæıĲä¾Ľ": 5630,
      "åķ¼": 5631,
      "æ²»çĸĹæĸ¹æ¡Ī": 5632,
      "æķĻåŃ¦": 5633,
      "æ½º": 5634,
      "è¯¥è¯Ħè®º": 5635,
      "ä¸»é¢ĺçļĦ": 5636,
      "æī®æ¼Ķ": 5637,
      "åĵĪåĵĪ": 5638,
      "ç»Ŀåı¥": 5639,
      "æĺİæ²»": 5640,
      "å·¾": 5641,
      "è¿Ľè¡Įç¼ĸè¾ĳ": 5642,
      "Ġåħ¶äºĮ": 5643,
      "æĶ¿æ²»": 5644,
      "å¦ĤæŀľæĤ¨éľĢè¦ģ": 5645,
      "äººå·¥æĻºèĥ½åı¯ä»¥": 5646,
      "çĻ»å±±": 5647,
      "ä¸ŃçļĦæīĢæľī": 5648,
      "æµ·æµª": 5649,
      "æĪĳä¸ºæĤ¨": 5650,
      "è®¤çŁ¥": 5651,
      "æĺ¯æŃ£éĿ¢": 5652,
      "\"ãĢĤ<|": 5653,
      "çļĦæĥħåĨµ": 5654,
      "yt": 5655,
      "åľ¨è¿ĻéĩĮ": 5656,
      "èĬ±è´¹": 5657,
      "èĥ¡èĲ": 5658,
      "å¦Ĩ": 5659,
      "èĥ¡èĲĿåįľ": 5660,
      "....": 5661,
      "èĻļæĭŁçİ°å®ŀ": 5662,
      "çĺ¦": 5663,
      "æĸĩä»¶": 5664,
      "æĪĳåı¯ä»¥å¸®æĤ¨": 5665,
      "è¾ĵåħ¥æĸĩæľ¬": 5666,
      "äº§çĶŁäºĨ": 5667,
      "çĥŃçĪ±": 5668,
      "å°Ĩä»¥ä¸ĭæ®µèĲ½": 5669,
      "çĶµåĬ¨": 5670,
      "è·Į": 5671,
      "ython": 5672,
      "çİ°çĬ¶": 5673,
      "è¿Ļç¯ĩæĸĩç«łçļĦåħ³éĶ®ä¿¡æģ¯": 5674,
      "çļĦçİ¯å¢ĥ": 5675,
      "å²Ĺ": 5676,
      "æħİ": 5677,
      "æĺ¾èĳĹ": 5678,
      "æ¯ĶèĲ¨": 5679,
      "çļĦæ°´": 5680,
      "çļĦé¤Ĳåİħ": 5681,
      "å·´è¥¿": 5682,
      "ä¹°äºĨä¸ĢäºĽ": 5683,
      "æĢ¨": 5684,
      "åİ»çľĭ": 5685,
      "000": 5686,
      "è´¾": 5687,
      "åĬ¨åĬĽ": 5688,
      "æĹ¥å¸¸çĶŁæ´»": 5689,
      "çľī": 5690,
      "æ®¿": 5691,
      "çĸ¼": 5692,
      "åĢļ": 5693,
      "æ²Ļæ¼ł": 5694,
      "å¿ĥçĲĨåŃ¦": 5695,
      "å·¥ä½ľçļĦ": 5696,
      "ç¶ĵ": 5697,
      "æ¶Ĥ": 5698,
      "èĶ¬èıľåĴĮ": 5699,
      "60": 5700,
      "æĶ¹æŃ£æĸĩæľ¬ä¸ŃçļĦéĶĻè¯¯": 5701,
      "è¯ķåĽ¾": 5702,
      "æīĢæľīçļĦäººåĲį": 5703,
      "åĩĨç¡®çļĦ": 5704,
      "è¶³çĲĥæ¯ĶèµĽ": 5705,
      "ä¸»æ¼Ķ": 5706,
      "æ¹¾": 5707,
      "è¿Ļä¸ªæķħäºĭ": 5708,
      "åįķä½į": 5709,
      "Python": 5710,
      "éĩįæĸ°æİĴåĪĹ": 5711,
      "å¯¹ä¸ĭéĿ¢çļĦæĸĩæľ¬è¿Ľè¡ĮçºłéĶĻ": 5712,
      "è¿Ĳè¡Į": 5713,
      "çİĦ": 5714,
      "å¤±åİ»": 5715,
      "æīĢä»¥ä»ĸ": 5716,
      "æĺĶ": 5717,
      "æľ¨æĺŁ": 5718,
      "ç»Ļå°ıçº¢": 5719,
      "æĺ¥å¤©çļĦ": 5720,
      "è¿Ļåı¥è¯ĿçļĦæĦıæĢĿæĺ¯ä»Ģä¹Ī": 5721,
      "ä¼į": 5722,
      "å¯¹æĸĩæľ¬éĶĻè¯¯è¿Ľè¡ĮçºłæŃ£": 5723,
      "è°Ĳ": 5724,
      "æµģç¨ĭ": 5725,
      "äºĨä¸Ģä»½": 5726,
      "å®ĥä»¬ä¹ĭéĹ´çļĦ": 5727,
      "çļ®èĤ¤": 5728,
      "ä¹ĺåĿĲ": 5729,
      "çħİ": 5730,
      "ä¼Łå¤§çļĦ": 5731,
      "æĽ´æ¸ħæĻ°": 5732,
      "åļ": 5733,
      "åı¤è¯Ĺè¯į": 5734,
      "ä¸īæĺİæ²»": 5735,
      "åįıåĬ©": 5736,
      "å¯ĵ": 5737,
      "çļĦæĥħåĨµä¸ĭ": 5738,
      "ä»Ģä¹Īæĺ¯äººå·¥æĻºèĥ½": 5739,
      "æĵħ": 5740,
      "æ¯ıå¤©éĥ½": 5741,
      "ç¢Ĺ": 5742,
      "åŃĿ": 5743,
      "å®Įç¾İ": 5744,
      "å¸ĿåĽ½": 5745,
      "èĬĤçº¦èĥ½æºĲ": 5746,
      "å°ıæĺİå®¶": 5747,
      "æĶ¹æŃ£æĸĩæľ¬éĶĻè¯¯": 5748,
      "åĬłéĢŁ": 5749,
      "ä¿Ŀéļľ": 5750,
      "éĢĤéĩı": 5751,
      "åģļçļĦ": 5752,
      "è¥¿çĵľ": 5753,
      "åĸľé©¬æĭīéĽħå±±èĦī": 5754,
      "å¤©åľ°": 5755,
      "ï¼ħ": 5756,
      "åİī": 5757,
      "æĪĸæĺ¯": 5758,
      "åĦ¿åŃĲ": 5759,
      "æĪĳçĪ±": 5760,
      "æĤ¨æĥ³è¦ģ": 5761,
      "ä»¥ä¸ĭåı¥åŃĲä¸Ń": 5762,
      "èŃ¦å¯Ł": 5763,
      "åĩıèĤ¥": 5764,
      "éĩİçĶŁåĬ¨çī©": 5765,
      "æ²ĥ": 5766,
      "è°ľè¯Ń": 5767,
      "è´Łè´£": 5768,
      "å¥¥æĸ¯": 5769,
      "ä¸Ľ": 5770,
      "åĴĮæľįåĬ¡": 5771,
      "æİĺ": 5772,
      "èĩªçĦ¶çİ¯å¢ĥ": 5773,
      "åŃ©åŃĲä»¬": 5774,
      "ï¼ĳ": 5775,
      "èµ¤": 5776,
      "èī¯å¥½": 5777,
      "åŃŁ": 5778,
      "åĮĸçŁ³": 5779,
      "è¯Ńå¢ĥ": 5780,
      "æľºéģĩ": 5781,
      "ä¸Ģä¸ªåħ³äºİ": 5782,
      "æµ¸": 5783,
      "ä»Ģä¹Īæł·çļĦ": 5784,
      "éĥĬ": 5785,
      "æŃ£ä¼ł": 5786,
      "è¯¦ç»Ĩä¿¡æģ¯": 5787,
      "éĹľ": 5788,
      "æĦŁçŁ¥": 5789,
      "åı¯èĥ½æĢ§": 5790,
      "å®¾è¯Ń": 5791,
      "æīĵç¯®çĲĥ": 5792,
      "åľŁè±Ĩ": 5793,
      "è¯ģæĺİ": 5794,
      "è½¬æį¢æĪĲ": 5795,
      "çļĦä¸ĢäºĽ": 5796,
      "æĸ¹éĿ¢çļĦåºĶçĶ¨": 5797,
      "å°½ç®¡å¤©æ°Ķ": 5798,
      "è¿½éĢĲ": 5799,
      "æ·±è¿ľ": 5800,
      "å®ŀä½ĵæĬ½åıĸ": 5801,
      "åĪļæīį": 5802,
      "åľŁåľ°": 5803,
      "æķ£æĸĩ": 5804,
      "æĺŁéĻħ": 5805,
      "åı¯èĥ½å¯¼èĩ´": 5806,
      "èħĬ": 5807,
      "æĩī": 5808,
      "åı¯ä»¥åĳĬè¯īæĪĳ": 5809,
      "æĮº": 5810,
      "å½ĵä»Ĭ": 5811,
      "å¾®ç¬ĳ": 5812,
      "æĺ¯å¦Ĥä½ķ": 5813,
      "æĬĢæľ¯åĴĮ": 5814,
      "å£¤": 5815,
      "éĸĭ": 5816,
      "åİĨåı²äºĭä»¶": 5817,
      "éĢĤå½ĵçļĦæłĩçĤ¹ç¬¦åı·": 5818,
      "çļĦéľĢæ±Ĥ": 5819,
      "ç»ıçĲĨ": 5820,
      "éĥĳ": 5821,
      "è¿Ļé¦ĸæŃĮ": 5822,
      "éľį": 5823,
      "å¿ĥæĢģ": 5824,
      "åį±å®³": 5825,
      "åħ½": 5826,
      "è¯·æ³¨æĦı": 5827,
      "éħįæĸĻ": 5828,
      "æĻļé¥Ń": 5829,
      "æİĴåĲį": 5830,
      "é½¿": 5831,
      "å¤ĸåĩº": 5832,
      "çªģçł´": 5833,
      "çİ¯ä¿ĿéĹ®é¢ĺ": 5834,
      "å®īè£ħ": 5835,
      "æĿ¥åĪ°": 5836,
      "æ°´åĴĮ": 5837,
      "ä¸»åĬ¨è¯ŃæĢģ": 5838,
      "èµ¢å¾ĹäºĨ": 5839,
      "å¤įæĿĤçļĦ": 5840,
      "ä¸įå°ĳ": 5841,
      "å±Ĭ": 5842,
      "åºĶçĶ¨é¢ĨåŁŁ": 5843,
      "ä¾£": 5844,
      "ä¿¡ä»»": 5845,
      "éĻįéĽ¨": 5846,
      "å°ıçº¢æľī": 5847,
      "è¶ĬæĿ¥è¶Ĭå¤ļ": 5848,
      "æĢ»ç»ĵä»ĸä»¬": 5849,
      "æĿİçĻ½": 5850,
      "æĻ´å¤©": 5851,
      "åŁ¹è®Ń": 5852,
      "æĪĲçļĦ": 5853,
      "åĪĨæĶ¯": 5854,
      "æľĢä½İæ°Ķæ¸©": 5855,
      "åı¯ä»¥è¢«": 5856,
      "æ´»åĬĽ": 5857,
      "éĩįåĨĻä¸ĭéĿ¢çļĦåı¥åŃĲ": 5858,
      "å¾Īå¥½åĲĥ": 5859,
      "ä»Ĭå¤©å¤©æ°ĶçľŁå¥½": 5860,
      "çļĩå¸Ŀ": 5861,
      "ï¼ģ\"<|": 5862,
      "æĲŀ": 5863,
      "æĪĳåı¯ä»¥ä¸ºæĤ¨æıĲä¾Ľ": 5864,
      "è¼": 5865,
      "åĩĨç¡®æĢ§": 5866,
      "çļĦä¸Ģéĥ¨åĪĨ": 5867,
      "æħ°": 5868,
      "å°½ç®¡å¥¹": 5869,
      "åĽŀåĪ°": 5870,
      "æĴŃæĶ¾": 5871,
      "ç¥ŀç§ĺçļĦ": 5872,
      "å¯¹ä»¥ä¸ĭ": 5873,
      "åĸľæ¬¢åľ¨": 5874,
      "æµ·é²ľ": 5875,
      "ä¸ĭéĿ¢è¯įè¯Ńæĺ¯ä»Ģä¹ĪæĦıæĢĿ": 5876,
      "æī¶": 5877,
      "ä½łèĥ½ä¸įèĥ½": 5878,
      "äºķ": 5879,
      "ä¿ĿæĬ¤åľ°çĲĥ": 5880,
      "æ·»åĬłä¸Ģä¸ª": 5881,
      "çļĦæľĢä½³": 5882,
      "å¤ļåĲĥ": 5883,
      "è¯¥åįķè¯į": 5884,
      "è¿Ļåı¥è¯ĿçļĦåĲ«ä¹īæĺ¯ä»Ģä¹Ī": 5885,
      "ä¼¦çĲĨ": 5886,
      "å¯¹ä¸įèµ·": 5887,
      "èĬĤå¥ı": 5888,
      "å¤´èĦĳ": 5889,
      "ãĢĤâĢĿâĢľ": 5890,
      "é¥¿": 5891,
      "æĪĳæĥ³åİ»": 5892,
      "å¤±ä¸ļ": 5893,
      "ç²¾ç¡®": 5894,
      "åĨħéĥ¨": 5895,
      "éļ¾å¿ĺ": 5896,
      "çļĦçīĪæľ¬": 5897,
      "éĢĿ": 5898,
      "æĥŁ": 5899,
      "è±¹": 5900,
      "ä¾ĿçĦ¶": 5901,
      "æľĢä½İæ¸©åº¦": 5902,
      "åĪĨå¸ĥ": 5903,
      "è¿ĺèĥ½": 5904,
      "åĲ¦å®ļ": 5905,
      "åĳ¨äºĶ": 5906,
      "è¿Ļä¸ªæĪĲè¯ŃçļĦæĦıæĢĿæĺ¯ä»Ģä¹Ī": 5907,
      "ç¬¼": 5908,
      "ç¿¼": 5909,
      "ä¿Ħç½Ĺæĸ¯": 5910,
      "åĽŀçŃĶä»¥ä¸ĭéĹ®é¢ĺ": 5911,
      "åįĥéĩĮ": 5912,
      "ä¸ĸçķĮä¸ĬæľĢå¤§çļĦ": 5913,
      "åħģ": 5914,
      "æĺİäº®": 5915,
      "èĬ±åĽŃéĩĮ": 5916,
      "çĸ¾çĹħçļĦ": 5917,
      "çī¹æľĹ": 5918,
      "å½Ĵç±»": 5919,
      "æĽ´åĬłç®Ģæ´ģæĺİäºĨ": 5920,
      "è§ĦèĮĥ": 5921,
      "åıĻ": 5922,
      "è¦ģæ±ĤGPTæ¨¡åŀĭ": 5923,
      "è¿Ļå®¶é¤ĲåİħçļĦ": 5924,
      "æľįåĬ¡åĳĺ": 5925,
      "çī§": 5926,
      "æľĢéĢĤåĲĪ": 5927,
      "è°¨": 5928,
      "æĦıè¯ĨåĪ°": 5929,
      "èĥĨ": 5930,
      "è¯·å¯¹ä¸Ĭè¿°æĸĩæľ¬è¿Ľè¡ĮçºłéĶĻ": 5931,
      "éĺ¿çĶĺæŃ£ä¼ł": 5932,
      "å¦Ĥä½ķæıĲé«ĺ": 5933,
      "æ¯ķä¸ļ": 5934,
      "åı¤èĢģçļĦ": 5935,
      "ä¸įåĨį": 5936,
      "æĺ¯ä¸Ģé¡¹": 5937,
      "ä¸ĸçķĮçļĦ": 5938,
      "æīİ": 5939,
      "åħ¶ä»ĸéĹ®é¢ĺ": 5940,
      "æĬļ": 5941,
      "éĿ¢è¯ķ": 5942,
      "ä½Ĩä¹Ł": 5943,
      "çº¤ç»´": 5944,
      "ä½ķå¤Ħ": 5945,
      "èµĦéĩĳ": 5946,
      "åģļä¸ĢäºĽ": 5947,
      "å¤©çĦ¶": 5948,
      "èµ°äºĨ": 5949,
      "çĢ": 5950,
      "å°Ĩä¸ĭéĿ¢çļĦåı¥åŃĲ": 5951,
      "åĴĮé«ĺ": 5952,
      "å¯¹åºĶ": 5953,
      "å·¥ä½ľæķĪçİĩ": 5954,
      "äºĴçĽ¸": 5955,
      "è¿Ľè¡ĮæĢ»ç»ĵ": 5956,
      "ç»Īäºİ": 5957,
      "è¡ĵ": 5958,
      "ç»ĻäºĪ": 5959,
      "ä»ĬæĹ¥": 5960,
      "çľŁæŃ£çļĦ": 5961,
      "åģļä¸Ģä¸ª": 5962,
      "å°ĸ": 5963,
      "ä»¥åīį": 5964,
      "å¥½çİ©": 5965,
      "åı¥åı·": 5966,
      "æ¯ıæ¬¡": 5967,
      "åĴĸåķ¡åºĹ": 5968,
      "è¯Ńæ³ķåĴĮæĭ¼åĨĻéĶĻè¯¯": 5969,
      "ç«ĭåį³": 5970,
      "ç³ĸå°¿": 5971,
      "åİ»åħ¬åĽŃæķ£æŃ¥": 5972,
      "ç³ĸå°¿çĹħ": 5973,
      "èĬ±é¦Ļ": 5974,
      "æĹħæ¸¸çļĦ": 5975,
      "è¯ķçĿĢ": 5976,
      "åĮĹäº¬çļĦ": 5977,
      "èģĶåĲĪåĽ½": 5978,
      "çļĦåħ³ç³»": 5979,
      "æµ¦": 5980,
      "æĶ¿åºľåĴĮ": 5981,
      "ä¸ºé¢ĺ": 5982,
      "æĪĳå°Ĩå°½åĬĽ": 5983,
      "ç»¼åĲĪ": 5984,
      "æĺİå¤©æĹ©ä¸Ĭ": 5985,
      "åĪĽå§ĭ": 5986,
      "æķ°æį®åĴĮ": 5987,
      "æĹ±": 5988,
      "åı¯ä¹Ĳ": 5989,
      "çĮ´": 5990,
      "åįĩé«ĺ": 5991,
      "æĸ¹çļĦ": 5992,
      "éĤ£è¯·ä½ł": 5993,
      "éĹ®é¢ĺåĴĮ": 5994,
      "æ´¥": 5995,
      "æĪĸä¸ŃæĢ§": 5996,
      "ä»¿ä½Ľ": 5997,
      "æİ¨èįĲåĲĹ": 5998,
      "æ¯Ķå¦Ĥè¯´": 5999,
      "ä¸ĳ": 6000,
      "å¼Ħ": 6001,
      "å¸ĺ": 6002,
      "æĢ§åĪ«": 6003,
      "æĪĴ": 6004,
      "ç¿ģ": 6005,
      "çĶŁæĪĲä¸Ģä¸ªåħ³äºİ": 6006,
      "æµ©": 6007,
      "éħª": 6008,
      "éĩįæĸ°ç»Ħç»ĩ": 6009,
      "å¹¶ä½¿çĶ¨": 6010,
      "åħ¶å®ŀ": 6011,
      "æ¸©é¦¨": 6012,
      "æİ¨æĸŃ": 6013,
      "æ²¡éĹ®é¢ĺ": 6014,
      "å¯Ĥå¯": 6015,
      "åĪĨéħį": 6016,
      "ä¸ºä»¥ä¸ĭæĸĩæľ¬": 6017,
      "éĢ²": 6018,
      "å¹¿åľº": 6019,
      "æ´ĭèĳ±": 6020,
      "çľŁçļĦå¾Ī": 6021,
      "åŃĺåĤ¨": 6022,
      "ä¹¦åºĹ": 6023,
      "ä»ĭç»įä¸Ģä¸ĭ": 6024,
      "æĿ¥æıĲé«ĺ": 6025,
      "æŀģç«¯å¤©æ°Ķ": 6026,
      "åıł": 6027,
      "åĲı": 6028,
      "æľīå®³": 6029,
      "çıĬ": 6030,
      "éĩĬæĶ¾": 6031,
      "æĴŀ": 6032,
      "éĵģå¡Ķ": 6033,
      "çļĦæĹ¥åŃĲ": 6034,
      "åĴĮæĥħæĦŁ": 6035,
      "æŀķ": 6036,
      "ä¾Ŀèµĸ": 6037,
      "åĬĽäºİ": 6038,
      "åħ¬ä¼Ĺ": 6039,
      "çĶŁæĪĲä¸Ģç¯ĩ": 6040,
      "è¿ĺæ²¡æľī": 6041,
      "èº«è¾¹": 6042,
      "è¯·æıĲåıĸæĸĩç«łä¸ŃçļĦ": 6043,
      "çŃīäºİ": 6044,
      "åŃ¦çĶŁä»¬": 6045,
      "åĥ§": 6046,
      "çļĦæĦıä¹ī": 6047,
      "ç®Ģçº¦": 6048,
      "èį¯çī©çłĶåıĳ": 6049,
      "ç»Ļå®ļä¸¤ä¸ª": 6050,
      "ç¼ĸè¾ĳä¸ĭéĿ¢": 6051,
      "æ°§æ°Ķ": 6052,
      "å¤ªéĺ³ç³»ä¸Ń": 6053,
      "æľįè£ħ": 6054,
      "åħ¨çĲĥæ°ĶåĢĻåıĺåĮĸ": 6055,
      "\"ãĢĤ": 6056,
      "å®ĮåĸĦ": 6057,
      "ä½¿åħ¶æĽ´ç®Ģæ´ģæĺİäºĨ": 6058,
      "ç´§æĢ¥": 6059,
      "æĭĤéĿ¢": 6060,
      "åĲĦä¸ªé¢ĨåŁŁ": 6061,
      "å±ıå¹ķ": 6062,
      "çļĦåŁºç¡Ģ": 6063,
      "ä½ĨæĪĳä»¬": 6064,
      "è¯¥éĹ®é¢ĺ": 6065,
      "æķħå®«": 6066,
      "å¤±çľł": 6067,
      "çļĦç®ĢçŁŃ": 6068,
      "çºµ": 6069,
      "åģļäºĨ": 6070,
      "çľĭçĶµè§Ĩ": 6071,
      "èı²å°Ķ": 6072,
      "åĪĳ": 6073,
      "æ®ĸ": 6074,
      "ç¥¸": 6075,
      "çĴĥ": 6076,
      "æĪĳä¹Ł": 6077,
      "åŃĲéĩĮ": 6078,
      "å¸¦æľī": 6079,
      "æĹĭå¾ĭ": 6080,
      "æľĭåıĭä»¬": 6081,
      "å¹¿æ³ĽåºĶçĶ¨äºİ": 6082,
      "åĵŃ": 6083,
      "åľºæīĢ": 6084,
      "å¤ıå¨ģ": 6085,
      "ç¬Ķè®°æľ¬": 6086,
      "åı¤è¯Ĺè¯įç»ŃåĨĻ": 6087,
      "åĪĽå§ĭäºº": 6088,
      "ä¸įçĽ¸åĲĮ": 6089,
      "ä¾§": 6090,
      "æľĢèĳĹåĲįçļĦ": 6091,
      "èĢĮæĺ¯": 6092,
      "çļĦå¸®åĬ©": 6093,
      "åĿĽ": 6094,
      "æłĩè¯Ń": 6095,
      "å¤ıå¨ģå¤·": 6096,
      "äººéĥ½": 6097,
      "ç§ĳæĬĢåĪĽæĸ°": 6098,
      "åłĨ": 6099,
      "æĪĳç»ıå¸¸": 6100,
      "æĹ¦": 6101,
      "å¾Īå¿«": 6102,
      "ä¼¸": 6103,
      "éĤ£æĪĳ": 6104,
      "éŁ³é¢ĳ": 6105,
      "æĢ»ç»ĵåĩº": 6106,
      "åıĳçĶŁäºĨ": 6107,
      "åĮĢ": 6108,
      "å¤©ä½ĵ": 6109,
      "ç¤¾ä¼ļçļĦ": 6110,
      "å´ĩ": 6111,
      "ðŁ": 6112,
      "çĶŁæĢģçİ¯å¢ĥ": 6113,
      "æķ°çļĦ": 6114,
      "åĮĸåĲĪ": 6115,
      "ä¸īä½ĵ": 6116,
      "æĭ¯": 6117,
      "æĹ¥çĽĬ": 6118,
      "éħ·": 6119,
      "æ£ķ": 6120,
      "åĩłä¹İ": 6121,
      "è¢«ç§°ä¸º": 6122,
      "å²Ń": 6123,
      "æ¸ħæĻ¨": 6124,
      "æł¹æį®è¾ĵåħ¥çļĦ": 6125,
      "é¡Į": 6126,
      "è¡Ģç®¡": 6127,
      "åĳĨ": 6128,
      "è´Ńçī©ä¸Ńå¿ĥ": 6129,
      "ä¸Ģç³»åĪĹ": 6130,
      "çļĦä¸ĸçķĮ": 6131,
      "ç¥Ī": 6132,
      "ç¼ĸè¾ĳä¸ĭéĿ¢çļĦåı¥åŃĲ": 6133,
      "å®³æĢķ": 6134,
      "ä¾ĽåºĶ": 6135,
      "æŁľ": 6136,
      "è¿Ļä¸¤ä¸ªåı¥åŃĲ": 6137,
      "é«Ķ": 6138,
      "è¯ģæį®": 6139,
      "æĭħä»»": 6140,
      "å®Įæķ´çļĦåı¥åŃĲ": 6141,
      "å¼Ģå±ķ": 6142,
      "å±±æ°´": 6143,
      "å°ıæĺİçİ°åľ¨": 6144,
      "éĩĩåıĸæİªæĸ½": 6145,
      "çİ«": 6146,
      "èħ°": 6147,
      "æľīçĶ¨": 6148,
      "æĦŁäºº": 6149,
      "èµ°è¿Ľ": 6150,
      "äººå·¥æĻºèĥ½åľ¨åĮ»çĸĹé¢ĨåŁŁçļĦåºĶçĶ¨": 6151,
      "åľ¨æŃ¤ä»»åĬ¡ä¸Ń": 6152,
      "éĤĢè¯·": 6153,
      "ç»ĻæĪĳæĥ³": 6154,
      "çľĭè¿ĩ": 6155,
      "åįģäºĶ": 6156,
      "è±ĨèħĲ": 6157,
      "æĽ´åĸľæ¬¢": 6158,
      "çĽ¸åħ³çļĦéĹ®é¢ĺ": 6159,
      "ç¼ºå°ĳ": 6160,
      "ç»Ļå®ļä¸Ģåı¥è¯Ŀ": 6161,
      "å¹¿æ³ĽçļĦåºĶçĶ¨": 6162,
      "èµĲ": 6163,
      "å¯¹æīĭ": 6164,
      "èº«ä½ĵåĴĮ": 6165,
      "åĩĨç¡®åľ°": 6166,
      "åĹ¯": 6167,
      "ä¸įä½³": 6168,
      "åı¯ä»¥éĢīæĭ©": 6169,
      "åįĪé¤Ĳ": 6170,
      "æ³Ĭå°Ķ": 6171,
      "çĽ¸åĬł": 6172,
      "åĸĿä¸ĢæĿ¯": 6173,
      "ĠAI": 6174,
      "å¯¹ä¸Ĭè¿°æĸĩæľ¬è¿Ľè¡ĮçºłéĶĻ": 6175,
      "çļĦè¯Ńæ°Ķ": 6176,
      "å¯¹ä¸Ĭè¿°æĸĩæľ¬è¿Ľè¡ĮçºłéĶĻåĲİçļĦç»ĵæŀľ": 6177,
      "äº¿ç¾İåħĥ": 6178,
      "çĹħäºº": 6179,
      "åĽ¾çīĩ": 6180,
      "èĩªåĬ¨é©¾é©¶æ±½è½¦": 6181,
      "å¾ĴæŃ¥": 6182,
      "çļĦå¤ĸ": 6183,
      "çķĶ": 6184,
      "åħīçº¿": 6185,
      "éĢĤåĲĪèĩªå·±çļĦ": 6186,
      "èĪĴæľį": 6187,
      "çİ»": 6188,
      "çĪµ": 6189,
      "éķ¿åº¦ä¸º": 6190,
      "åĢ¡": 6191,
      "çĭĲ": 6192,
      "èĥĸ": 6193,
      "æĴĴ": 6194,
      "æ¾³å¤§åĪ©": 6195,
      "åħ¶ä¸Ńä¸Ģä¸ª": 6196,
      "è¿ĺåī©": 6197,
      "èĥ½åĳĬè¯īæĪĳ": 6198,
      "åĲįè¨Ģ": 6199,
      "å¹ħçĶ»": 6200,
      "èĺĳ": 6201,
      "å°¼æ³Ĭå°Ķ": 6202,
      "ä»¥åĨħ": 6203,
      "è¦ģæ±ĤæĬ¼éŁµ": 6204,
      "çĽĨ": 6205,
      "æĸ°åı¥åŃĲ": 6206,
      "èİ²": 6207,
      "æī¾åĪ°äºĨ": 6208,
      "å¸¦ä¸Ĭ": 6209,
      "æ¼ĶåĶ±": 6210,
      "çļĦè¿ĩç¨ĭ": 6211,
      "åħ¹": 6212,
      "èĺĳèıĩ": 6213,
      "22": 6214,
      "éĢĤå®ľ": 6215,
      "åį±æľº": 6216,
      "40": 6217,
      "åİŁæĿ¥": 6218,
      "æ¦Ĥæĭ¬ä¸Ģä¸ĭ": 6219,
      "åĨĽäºĭ": 6220,
      "èĿī": 6221,
      "æĹħç¨ĭ": 6222,
      "åįĹäº¬": 6223,
      "è°ĥåĳ³": 6224,
      "æĪª": 6225,
      "åĴĮè¯Ńæ³ķéĶĻè¯¯": 6226,
      "è¿Ļå°Ĩ": 6227,
      "éĵ¶æ²³": 6228,
      "æľīå¤ļ": 6229,
      "æ¸Ķ": 6230,
      "æ¡Īä»¶": 6231,
      "æ¶ĪéĻ¤": 6232,
      "æľºåĻ¨åŃ¦ä¹łç®Ĺæ³ķ": 6233,
      "æĪĳä»¬åľ¨": 6234,
      "æ¯ıä¸ªäººéĥ½åºĶè¯¥": 6235,
      "æ¸©å®¤æ°Ķä½ĵæİĴæĶ¾": 6236,
      "ç»Ĵ": 6237,
      "ä¸ºä¸Ģç¯ĩæĸĩç«ł": 6238,
      "ä¹Ĳè¶£": 6239,
      "åı¯ä»¥åİ»": 6240,
      "æħ¢æħ¢": 6241,
      "ï¼ģâĢĿ<|": 6242,
      "ä»¥æıĲé«ĺ": 6243,
      "åı¯åı£": 6244,
      "éĽķ": 6245,
      "åĲįç§°åĴĮ": 6246,
      "æĺİå¤©çļĦ": 6247,
      "çļĦçĿ¡çľł": 6248,
      "æ¬º": 6249,
      "æł¹æį®ç»Ļåĩº": 6250,
      "æ¾³å¤§åĪ©äºļ": 6251,
      "éĻĮ": 6252,
      "éģĹäº§": 6253,
      "éĤ£ä¹Īè¯·ä½ł": 6254,
      "æĸ°é²ľçļĦ": 6255,
      "è³ĩ": 6256,
      "èĦĨ": 6257,
      "è¿Ľè¡ĮéĩįåĨĻ": 6258,
      "çŁŃä¿¡": 6259,
      "æµģæµª": 6260,
      "æİ¨èįĲä¸Ģä¸ª": 6261,
      "æŁĲç§į": 6262,
      "æ²Ī": 6263,
      "è¿Ļç¯ĩæĸĩç«łä»ĭç»įäºĨ": 6264,
      "æķĻå¸Ī": 6265,
      "ç»Ħç»ĩæľºæŀĦ": 6266,
      "æī¹è¯Ħ": 6267,
      "æĭ¯æķĳ": 6268,
      "æĸ°æĬĢæľ¯": 6269,
      "æİ¨è¿Ł": 6270,
      "èĩªå·±çļĦè¯Ŀ": 6271,
      "æ¿ĢçĥĪ": 6272,
      "è¿Ļåľºæ¯ĶèµĽ": 6273,
      "çļĦè¡Įä¸º": 6274,
      "å°Ĩä»¥ä¸ĭåı¥åŃĲæĶ¹åĨĻä¸º": 6275,
      "å¹´ä»½": 6276,
      "ç²Ĺ": 6277,
      "å§Ĩæĸ¯": 6278,
      "åŃ¦èĢħ": 6279,
      "æ©Ł": 6280,
      "åı¯ä»¥æıĲä¾Ľ": 6281,
      "æĤ¨æıĲä¾Ľ": 6282,
      "ä¸Ńåįİ": 6283,
      "å°ĩ": 6284,
      "æ³Ħ": 6285,
      "æľĢåıĹæ¬¢è¿İçļĦ": 6286,
      "æĪĸåħ¶ä»ĸ": 6287,
      "åĩłä¸ªèĭ¹æŀľ": 6288,
      "ç¥Ŀç¦ı": 6289,
      "æŁı": 6290,
      "å¤ªå¹³": 6291,
      "å¤§èĩªçĦ¶çļĦ": 6292,
      "æŀĦéĢł": 6293,
      "è¿Ļç¯ĩæĸĩç«łçļĦä¸»è¦ģè§ĤçĤ¹æĺ¯": 6294,
      "åĩıå°ĳå¡ĳæĸĻ": 6295,
      "ç¥ŀå¥ĩ": 6296,
      "åıĳçĶŁçļĦ": 6297,
      "æ¯ıåĳ¨": 6298,
      "åĸĦèī¯": 6299,
      "éĥŃ": 6300,
      "éĿŀå¸¸åĸľæ¬¢": 6301,
      "å¯¼èĩ´çļĦ": 6302,
      "çļĦçĽ®æłĩ": 6303,
      "äººå·¥æĻºèĥ½å°Ĩ": 6304,
      "èħ»": 6305,
      "æĲºå¸¦": 6306,
      "åĢ¼å¾Ĺä¸Ģçľĭ": 6307,
      "æ¸ħåĩī": 6308,
      "èĵ¬": 6309,
      "åĸĿæ°´": 6310,
      "èĬĿå£«": 6311,
      "ä¸»æĦı": 6312,
      "æĭ¥åłµ": 6313,
      "è·³èĪŀ": 6314,
      "ä¾¿å®ľ": 6315,
      "åĵªä¸ªåŁİå¸Ĥ": 6316,
      "èĴľ": 6317,
      "è¿ĩçļĦ": 6318,
      "å£¶": 6319,
      "ç¼ĸè¾ĳä»¥ä¸ĭ": 6320,
      "ç§ĳæĬĢåħ¬åı¸": 6321,
      "ä½ľä¸ºä¸ĢåĲį": 6322,
      "åħįè´¹": 6323,
      "çľĭçĿĢ": 6324,
      "ç²¾åĬĽ": 6325,
      "çĲĨè§£åĴĮ": 6326,
      "æ½ľåĬĽ": 6327,
      "ç½¢": 6328,
      "æķ°åŃĹåĮĸ": 6329,
      "æĸĩèīº": 6330,
      "çĭ¬èĩª": 6331,
      "åĨĻåĩº": 6332,
      "éĤª": 6333,
      "å¤įä»ĩ": 6334,
      "èĤīç±»": 6335,
      "Ġ2": 6336,
      "è¯Ńä¹ī": 6337,
      "ç®Ń": 6338,
      "åĸľæĤ¦": 6339,
      "æĶ¾åħ¥": 6340,
      "æģĴæĺŁ": 6341,
      "å¯¹ä»¥ä¸ĭæĸĩæľ¬": 6342,
      "ä»İä¸Ń": 6343,
      "å®ı": 6344,
      "è½¨": 6345,
      "æµģæ°´": 6346,
      "å¤ĸçļĦ": 6347,
      "çŃĽ": 6348,
      "æº¢": 6349,
      "å°ıéķĩ": 6350,
      "æłĸæģ¯": 6351,
      "åĪ°çļĦ": 6352,
      "åĳĬè¯īä½ł": 6353,
      "å¸®æĪĳæĥ³ä¸ĢäºĽ": 6354,
      "æģ°å½ĵ": 6355,
      "ä¹Ļ": 6356,
      "èĢģæĿ¿": 6357,
      "ç»Ļå®ļä¸Ģæ®µæĸĩåŃĹ": 6358,
      "ä¸ĸçķĮä¸ĬæľĢé«ĺçļĦå±±å³°æĺ¯çıłç©ĨæľĹçİĽå³°": 6359,
      "å®¢æľį": 6360,
      "å®īåħ¨æĢ§": 6361,
      "æĪĳæĥ³çŁ¥éģĵå¦Ĥä½ķ": 6362,
      "çĶ³è¯·": 6363,
      "çħ§é¡¾": 6364,
      "æĴĳ": 6365,
      "è¿ĲçĶ¨": 6366,
      "è´¹çĶ¨": 6367,
      "éĻĲäºİ": 6368,
      "åĲĮäºĭ": 6369,
      "ä»²": 6370,
      "çĶµåĻ¨": 6371,
      "ç¾İæ´²": 6372,
      "è£Ĥ": 6373,
      "æıĲä¾Ľä¸Ģä¸ªæłĩé¢ĺ": 6374,
      "æįŁå¤±": 6375,
      "ï¼Ĳ": 6376,
      "èĻ¹": 6377,
      "çĽ®çļĦæĺ¯": 6378,
      "çĻ½å¤©": 6379,
      "å¼ºå¤§çļĦ": 6380,
      "éĿŀå¸¸éĢĤåĲĪ": 6381,
      "æĪĳæĥ³äºĨè§£": 6382,
      "èĩ´åĬĽäºİ": 6383,
      "ç»¿èī²çļĦ": 6384,
      "é«ĺè´¨éĩı": 6385,
      "åĲĮæł·": 6386,
      "èĳ£": 6387,
      "è¿Ļç¯ĩè®ºæĸĩ": 6388,
      "éŁ©åĽ½": 6389,
      "æĪĳæľī": 6390,
      "éĿŀå¸¸å¥½çļĦ": 6391,
      "æµ·å²¸": 6392,
      "å¯¼èĩ´äºĨ": 6393,
      "çŁŃåı¥": 6394,
      "ä¸Ģè¾Ĩ": 6395,
      "åľºåĲĪ": 6396,
      "åĪĽéĢłä¸Ģä¸ª": 6397,
      "å¥¥æĸ¯åį¡": 6398,
      "èµ«": 6399
    },
    "merges": [
      [
        "ä",
        "¸"
      ],
      [
        "ï",
        "¼"
      ],
      [
        "ã",
        "Ģ"
      ],
      [
        "ç",
        "ļ"
      ],
      [
        "çļ",
        "Ħ"
      ],
      [
        "ï¼",
        "Į"
      ],
      [
        "ãĢ",
        "Ĥ"
      ],
      [
        "i",
        "m"
      ],
      [
        "<",
        "|"
      ],
      [
        "|",
        ">"
      ],
      [
        "ä",
        "º"
      ],
      [
        "ä",
        "»"
      ],
      [
        "å",
        "ı"
      ],
      [
        "æ",
        "ľ"
      ],
      [
        "è",
        "¯"
      ],
      [
        "æ",
        "Ī"
      ],
      [
        "è",
        "¿"
      ],
      [
        "æ",
        "ĸ"
      ],
      [
        "å",
        "ħ"
      ],
      [
        "å",
        "¤"
      ],
      [
        "ä¸",
        "Ģ"
      ],
      [
        "ä",
        "½"
      ],
      [
        "æ",
        "ĺ"
      ],
      [
        "a",
        "r"
      ],
      [
        "e",
        "n"
      ],
      [
        "s",
        "t"
      ],
      [
        "ar",
        "t"
      ],
      [
        "en",
        "d"
      ],
      [
        "st",
        "art"
      ],
      [
        "å",
        "®"
      ],
      [
        "ç",
        "Ķ"
      ],
      [
        "å",
        "Ĳ"
      ],
      [
        "Ġ",
        "<|"
      ],
      [
        "å",
        "ľ"
      ],
      [
        "å",
        "Ī"
      ],
      [
        "ãĢĤ",
        "<|"
      ],
      [
        "ä",
        "¹"
      ],
      [
        "ç",
        "»"
      ],
      [
        "å",
        "Ń"
      ],
      [
        "æĪ",
        "ĳ"
      ],
      [
        "ä¸",
        "ª"
      ],
      [
        "æĺ",
        "¯"
      ],
      [
        "å",
        "Ĭ"
      ],
      [
        "å",
        "Ĵ"
      ],
      [
        "å",
        "°"
      ],
      [
        "ï¼",
        "ļ"
      ],
      [
        "æĸ",
        "ĩ"
      ],
      [
        "åĴ",
        "Į"
      ],
      [
        "ãĢ",
        "ģ"
      ],
      [
        "ä»",
        "¥"
      ],
      [
        "æľ",
        "ī"
      ],
      [
        "åľ",
        "¨"
      ],
      [
        "æ",
        "Ĺ"
      ],
      [
        "è",
        "®"
      ],
      [
        "ä¸",
        "Ń"
      ],
      [
        "è¿",
        "Ļ"
      ],
      [
        "å",
        "Ľ"
      ],
      [
        "äº",
        "º"
      ],
      [
        "å",
        "ĩ"
      ],
      [
        "å",
        "Ĩ"
      ],
      [
        "äº",
        "Ĩ"
      ],
      [
        "ĥ",
        "½"
      ],
      [
        "å",
        "¸"
      ],
      [
        "é",
        "ĩ"
      ],
      [
        "é",
        "¢"
      ],
      [
        "å",
        "º"
      ],
      [
        "å",
        "¹"
      ],
      [
        "æ",
        "ı"
      ],
      [
        "æ",
        "Ŀ"
      ],
      [
        "å",
        "¥"
      ],
      [
        "è",
        "¡"
      ],
      [
        "ä¸",
        "º"
      ],
      [
        "å",
        "¾"
      ],
      [
        "é",
        "Ĺ"
      ],
      [
        "ä¸",
        "ĭ"
      ],
      [
        "åı",
        "¯"
      ],
      [
        "ä",
        "¼"
      ],
      [
        "è",
        "¦"
      ],
      [
        "è¦",
        "ģ"
      ],
      [
        "å",
        "į"
      ],
      [
        "æ",
        "ł"
      ],
      [
        "å",
        "·"
      ],
      [
        "åŃ",
        "Ĳ"
      ],
      [
        "è",
        "ĥ½"
      ],
      [
        "é",
        "Ģ"
      ],
      [
        "åı",
        "¥"
      ],
      [
        "å",
        "Į"
      ],
      [
        "å",
        "½"
      ],
      [
        "â",
        "Ģ"
      ],
      [
        "æ",
        "ī"
      ],
      [
        "ç",
        "İ"
      ],
      [
        "ä¸",
        "į"
      ],
      [
        "æı",
        "Ĳ"
      ],
      [
        "ä¸Ģ",
        "ä¸ª"
      ],
      [
        "æ",
        "Ń"
      ],
      [
        "æ",
        "Ģ"
      ],
      [
        "ç",
        "ī"
      ],
      [
        "å",
        "¯"
      ],
      [
        "æ",
        "Ĭ"
      ],
      [
        "é",
        "Ŀ"
      ],
      [
        "ç",
        "§"
      ],
      [
        "ç",
        "«"
      ],
      [
        "è",
        "§"
      ],
      [
        "æĪ",
        "Ĳ"
      ],
      [
        "å",
        "İ"
      ],
      [
        "çĶ",
        "Ł"
      ],
      [
        "æ",
        "°"
      ],
      [
        "æ",
        "ķ"
      ],
      [
        "ç",
        "Ń"
      ],
      [
        "ä",
        "¿"
      ],
      [
        "åĩ",
        "º"
      ],
      [
        "æ",
        "ĥ"
      ],
      [
        "å",
        "¼"
      ],
      [
        "æ",
        "ŀ"
      ],
      [
        "å¤",
        "©"
      ],
      [
        "æľ",
        "¬"
      ],
      [
        "æ",
        "Ħ"
      ],
      [
        "æ",
        "Ľ"
      ],
      [
        "æ",
        "Ļ"
      ],
      [
        "æ",
        "³"
      ],
      [
        "ç",
        "Ľ"
      ],
      [
        "çĶ",
        "¨"
      ],
      [
        "ï¼",
        "Ł"
      ],
      [
        "ä»",
        "¬"
      ],
      [
        "é¢",
        "ĺ"
      ],
      [
        "è",
        "Ģ"
      ],
      [
        "åı¯",
        "ä»¥"
      ],
      [
        "å",
        "ĵ"
      ],
      [
        "å",
        "ĳ"
      ],
      [
        "ç»",
        "Ļ"
      ],
      [
        "ä½",
        "ł"
      ],
      [
        "ä»",
        "ĸ"
      ],
      [
        "åı¥",
        "åŃĲ"
      ],
      [
        "å¥",
        "½"
      ],
      [
        "è¡",
        "Į"
      ],
      [
        "ä",
        "¾"
      ],
      [
        "æ",
        "Ķ"
      ],
      [
        "æ",
        "ĭ"
      ],
      [
        "ä¸",
        "Ĭ"
      ],
      [
        "æĿ",
        "¥"
      ],
      [
        "ç«",
        "ł"
      ],
      [
        "å",
        "¿"
      ],
      [
        "æĸĩ",
        "ç«ł"
      ],
      [
        "æ",
        "µ"
      ],
      [
        "¦",
        "Ĥ"
      ],
      [
        "è",
        "ĩ"
      ],
      [
        "æ",
        "İ"
      ],
      [
        "ç",
        "Ĳ"
      ],
      [
        "å®",
        "ļ"
      ],
      [
        "åħ",
        "³"
      ],
      [
        "åĪ",
        "°"
      ],
      [
        "æ",
        "į"
      ],
      [
        "äº",
        "İ"
      ],
      [
        "æ",
        "Ĥ"
      ],
      [
        "æĽ",
        "´"
      ],
      [
        "è",
        "¾"
      ],
      [
        "è¯",
        "·"
      ],
      [
        "ç",
        "®"
      ],
      [
        "è¯",
        "Ń"
      ],
      [
        "åħ",
        "¶"
      ],
      [
        "é",
        "£"
      ],
      [
        "åŃ",
        "¦"
      ],
      [
        "æĸĩ",
        "æľ¬"
      ],
      [
        "æ",
        "¬"
      ],
      [
        "æĹ",
        "¶"
      ],
      [
        "è",
        "µ"
      ],
      [
        "åľ",
        "°"
      ],
      [
        "ç",
        "º"
      ],
      [
        "è¯",
        "į"
      ],
      [
        "å",
        "¦Ĥ"
      ],
      [
        "éĹ",
        "®"
      ],
      [
        "æ",
        "¯"
      ],
      [
        "å",
        "±"
      ],
      [
        "æ",
        "¸"
      ],
      [
        "å¤",
        "§"
      ],
      [
        "é",
        "Ķ"
      ],
      [
        "æľ",
        "Ģ"
      ],
      [
        "æĸ",
        "°"
      ],
      [
        "æ",
        "´"
      ],
      [
        "å¤",
        "ļ"
      ],
      [
        "æ",
        "²"
      ],
      [
        "å¯",
        "¹"
      ],
      [
        "å°",
        "Ĩ"
      ],
      [
        "åĨ",
        "Ļ"
      ],
      [
        "è",
        "´"
      ],
      [
        "ä¼",
        "ļ"
      ],
      [
        "ç",
        "ľ"
      ],
      [
        "æĤ",
        "¨"
      ],
      [
        "âĢ",
        "Ŀ"
      ],
      [
        "äº",
        "Ľ"
      ],
      [
        "å·",
        "¥"
      ],
      [
        "ç",
        "Ĥ"
      ],
      [
        "åĬ",
        "¨"
      ],
      [
        "æ",
        "Į"
      ],
      [
        "éĿ",
        "¢"
      ],
      [
        "å",
        "ĸ"
      ],
      [
        "åı",
        "ĸ"
      ],
      [
        "æ³",
        "ķ"
      ],
      [
        "æį",
        "®"
      ],
      [
        "å¹",
        "¶"
      ],
      [
        "æĸ",
        "¹"
      ],
      [
        "ä»¥",
        "ä¸ĭ"
      ],
      [
        "é",
        "ľ"
      ],
      [
        "æ°",
        "Ķ"
      ],
      [
        "ä½",
        "¿"
      ],
      [
        "ä¹",
        "Ī"
      ],
      [
        "çŃ",
        "ī"
      ],
      [
        "ä½",
        "ľ"
      ],
      [
        "ç",
        "±"
      ],
      [
        "èĩ",
        "ª"
      ],
      [
        "çī",
        "©"
      ],
      [
        "éĩ",
        "į"
      ],
      [
        "å¾",
        "Ī"
      ],
      [
        "å°",
        "ı"
      ],
      [
        "æ",
        "±"
      ],
      [
        "å",
        "ģ"
      ],
      [
        "ç",
        "Ł"
      ],
      [
        "å½",
        "±"
      ],
      [
        "ç",
        "Ħ"
      ],
      [
        "è¿",
        "Ľ"
      ],
      [
        "çĶ",
        "µ"
      ],
      [
        "æĺ",
        "İ"
      ],
      [
        "é",
        "Ļ"
      ],
      [
        "ä½",
        "ĵ"
      ],
      [
        "åĪ",
        "Ĩ"
      ],
      [
        "âĢ",
        "ľ"
      ],
      [
        "åı",
        "ĳ"
      ],
      [
        "å",
        "Ł"
      ],
      [
        "æŀ",
        "ľ"
      ],
      [
        "ä¸",
        "»"
      ],
      [
        "åĬ",
        "ł"
      ],
      [
        "æĥ",
        "ħ"
      ],
      [
        "é",
        "ĺ"
      ],
      [
        "çİ",
        "°"
      ],
      [
        "é",
        "ģ"
      ],
      [
        "å¸",
        "¸"
      ],
      [
        "åĲ",
        "į"
      ],
      [
        "å®",
        "ĥ"
      ],
      [
        "ç",
        "¯"
      ],
      [
        "æ",
        "ģ"
      ],
      [
        "å®",
        "¶"
      ],
      [
        "ç±",
        "»"
      ],
      [
        "è",
        "ī"
      ],
      [
        "è",
        "½"
      ],
      [
        "çĦ",
        "¶"
      ],
      [
        "éľ",
        "Ģ"
      ],
      [
        "ä¾",
        "Ľ"
      ],
      [
        "æĪ",
        "ĸ"
      ],
      [
        "è",
        "¶"
      ],
      [
        "ä¿",
        "Ŀ"
      ],
      [
        "åİ",
        "»"
      ],
      [
        "åĽ",
        "½"
      ],
      [
        "ç",
        "¾"
      ],
      [
        "é",
        "«"
      ],
      [
        "æĦ",
        "Ł"
      ],
      [
        "çĤ",
        "¹"
      ],
      [
        "ç¯",
        "ĩ"
      ],
      [
        "é«",
        "ĺ"
      ],
      [
        "æıĲ",
        "ä¾Ľ"
      ],
      [
        "éĹ®",
        "é¢ĺ"
      ],
      [
        "è¿",
        "ĩ"
      ],
      [
        "è",
        "°"
      ],
      [
        "åº",
        "Ķ"
      ],
      [
        "æĪĳ",
        "ä»¬"
      ],
      [
        "æĻ",
        "º"
      ],
      [
        "æĦ",
        "ı"
      ],
      [
        "æł",
        "¹"
      ],
      [
        "å",
        "ī"
      ],
      [
        "åĲ",
        "Į"
      ],
      [
        "ä»",
        "İ"
      ],
      [
        "è",
        "Ĭ"
      ],
      [
        "åĬ",
        "Ľ"
      ],
      [
        "çĲ",
        "Ĩ"
      ],
      [
        "åĸ",
        "ľ"
      ],
      [
        "æľ",
        "º"
      ],
      [
        "ä»",
        "Ģ"
      ],
      [
        "ç»Ļ",
        "å®ļ"
      ],
      [
        "åĽ",
        "ł"
      ],
      [
        "æķ",
        "°"
      ],
      [
        "è¿Ļ",
        "ä¸ª"
      ],
      [
        "æĻº",
        "èĥ½"
      ],
      [
        "æł¹",
        "æį®"
      ],
      [
        "æī",
        "Ģ"
      ],
      [
        "ä»Ģ",
        "ä¹Ī"
      ],
      [
        "éľĢ",
        "è¦ģ"
      ],
      [
        "å¾",
        "Ĺ"
      ],
      [
        "åħ",
        "¬"
      ],
      [
        "æ¬",
        "¢"
      ],
      [
        "ä¹",
        "ĭ"
      ],
      [
        "ç§",
        "į"
      ],
      [
        "ç¾",
        "İ"
      ],
      [
        "ä½",
        "Ĩ"
      ],
      [
        "ç",
        "©"
      ],
      [
        "è¯",
        "Ŀ"
      ],
      [
        "æŃ",
        "£"
      ],
      [
        "é",
        "Ĥ"
      ],
      [
        "ä¿",
        "¡"
      ],
      [
        "æ",
        "®"
      ],
      [
        "æĥ",
        "³"
      ],
      [
        "æ",
        "Ł"
      ],
      [
        "æĢ",
        "§"
      ],
      [
        "å¹",
        "´"
      ],
      [
        "ç",
        "¼"
      ],
      [
        "å",
        "»"
      ],
      [
        "åĵ",
        "ģ"
      ],
      [
        "éĩ",
        "Į"
      ],
      [
        "åĮ",
        "ĸ"
      ],
      [
        "æĬ",
        "Ģ"
      ],
      [
        "å®",
        "ŀ"
      ],
      [
        "è§",
        "£"
      ],
      [
        "é",
        "¦"
      ],
      [
        "è¿Ľ",
        "è¡Į"
      ],
      [
        "çĽ",
        "¸"
      ],
      [
        "çľ",
        "ĭ"
      ],
      [
        "ç",
        "ĸ"
      ],
      [
        "çĶŁ",
        "æĪĲ"
      ],
      [
        "åº",
        "¦"
      ],
      [
        "æıĲ",
        "åıĸ"
      ],
      [
        "ç»",
        "ı"
      ],
      [
        "ç®",
        "Ģ"
      ],
      [
        "ç",
        "¬"
      ],
      [
        "å",
        "¢"
      ],
      [
        "éĹ",
        "´"
      ],
      [
        "å¿",
        "ĥ"
      ],
      [
        "é",
        "Ľ"
      ],
      [
        "è¿",
        "°"
      ],
      [
        "è¡",
        "¨"
      ],
      [
        "é",
        "¡"
      ],
      [
        "èī",
        "²"
      ],
      [
        "ä¸Ń",
        "çļĦ"
      ],
      [
        "éĿ",
        "ŀ"
      ],
      [
        "æ",
        "¡"
      ],
      [
        "æģ",
        "¯"
      ],
      [
        "çŃ",
        "Ķ"
      ],
      [
        "ç",
        "³"
      ],
      [
        "å½",
        "ĵ"
      ],
      [
        "çĶµ",
        "å½±"
      ],
      [
        "åĸľ",
        "æ¬¢"
      ],
      [
        "åį",
        "ķ"
      ],
      [
        "è",
        "Ĳ"
      ],
      [
        "çİ",
        "¯"
      ],
      [
        "æ®",
        "µ"
      ],
      [
        "æĹ",
        "ł"
      ],
      [
        "å",
        "Ģ"
      ],
      [
        "äº",
        "ĭ"
      ],
      [
        "ç",
        "ķ"
      ],
      [
        "å»",
        "º"
      ],
      [
        "åĮ",
        "ħ"
      ],
      [
        "ä¹",
        "Ł"
      ],
      [
        "æł",
        "ĩ"
      ],
      [
        "ç",
        "Ŀ"
      ],
      [
        "è",
        "ĭ"
      ],
      [
        "ä¹",
        "ł"
      ],
      [
        "è¯",
        "¥"
      ],
      [
        "è",
        "Ĥ"
      ],
      [
        "åŃ",
        "Ĺ"
      ],
      [
        "è",
        "į"
      ],
      [
        "å¸",
        "Ĥ"
      ],
      [
        "è",
        "ģ"
      ],
      [
        "åĲ",
        "İ"
      ],
      [
        "äºº",
        "å·¥"
      ],
      [
        "æĶ",
        "¹"
      ],
      [
        "çĲ",
        "ĥ"
      ],
      [
        "ç",
        "¨"
      ],
      [
        "é",
        "ķ"
      ],
      [
        "æ¯",
        "Ķ"
      ],
      [
        "éĢ",
        "ļ"
      ],
      [
        "å¥½",
        "çļĦ"
      ],
      [
        "èĢ",
        "ħ"
      ],
      [
        "äººå·¥",
        "æĻºèĥ½"
      ],
      [
        "æ°",
        "´"
      ],
      [
        "ä¸Ģ",
        "äºĽ"
      ],
      [
        "æĹ",
        "¥"
      ],
      [
        "åĲ",
        "Ī"
      ],
      [
        "ç",
        "¤"
      ],
      [
        "é£",
        "Ł"
      ],
      [
        "é",
        "ĥ"
      ],
      [
        "å",
        "ŀ"
      ],
      [
        "ç",
        "½"
      ],
      [
        "åĽ",
        "ŀ"
      ],
      [
        "é£",
        "İ"
      ],
      [
        "é",
        "ĥ½"
      ],
      [
        "è",
        "·"
      ],
      [
        "ç¯ĩ",
        "æĸĩç«ł"
      ],
      [
        "ç",
        "¡"
      ],
      [
        "éĿŀ",
        "å¸¸"
      ],
      [
        "è",
        "¨"
      ],
      [
        "å¸",
        "®"
      ],
      [
        "ä¿¡",
        "æģ¯"
      ],
      [
        "ç",
        "ĭ"
      ],
      [
        "è¿",
        "ĺ"
      ],
      [
        "æ",
        "·"
      ],
      [
        "åħ",
        "¥"
      ],
      [
        "éĤ",
        "£"
      ],
      [
        "ä¸",
        "İ"
      ],
      [
        "è¯",
        "Ĺ"
      ],
      [
        "åī",
        "į"
      ],
      [
        "è¯",
        "´"
      ],
      [
        "æ²",
        "¡"
      ],
      [
        "å¼",
        "Ģ"
      ],
      [
        "éģ",
        "ĵ"
      ],
      [
        "éĶ",
        "Ļ"
      ],
      [
        "èĢ",
        "Į"
      ],
      [
        "é",
        "ļ"
      ],
      [
        "ä¸",
        "ļ"
      ],
      [
        "æ´",
        "»"
      ],
      [
        "åħ",
        "·"
      ],
      [
        "è¨",
        "Ģ"
      ],
      [
        "ç",
        "ĥ"
      ],
      [
        "ç",
        "Ī"
      ],
      [
        "ç",
        "´"
      ],
      [
        "éķ",
        "¿"
      ],
      [
        "è®",
        "¡"
      ],
      [
        "ä¸",
        "¤"
      ],
      [
        "æľ",
        "¯"
      ],
      [
        "å¤©",
        "æ°Ķ"
      ],
      [
        "æĭ",
        "¬"
      ],
      [
        "è®",
        "®"
      ],
      [
        "å¤",
        "Ħ"
      ],
      [
        "èµ",
        "·"
      ],
      [
        "åħ",
        "¨"
      ],
      [
        "ä¹",
        "ī"
      ],
      [
        "æĺ¯",
        "ä¸Ģ"
      ],
      [
        "æµ",
        "·"
      ],
      [
        "æ",
        "ĳ"
      ],
      [
        "åĨ",
        "ħ"
      ],
      [
        "åı",
        "ĺ"
      ],
      [
        "ãĢ",
        "ĭ"
      ],
      [
        "ãĢ",
        "Ĭ"
      ],
      [
        "ç»",
        "ĵ"
      ],
      [
        "ä½",
        "ķ"
      ],
      [
        "ç¡",
        "®"
      ],
      [
        "è",
        "Ļ"
      ],
      [
        "å¼",
        "ı"
      ],
      [
        "ä¸",
        "ī"
      ],
      [
        "éĥ",
        "¨"
      ],
      [
        "åŃ¦",
        "ä¹ł"
      ],
      [
        "éĩ",
        "ı"
      ],
      [
        "æ¡",
        "Ī"
      ],
      [
        "ç",
        "Ļ"
      ],
      [
        "å",
        "Ŀ"
      ],
      [
        "æİ",
        "¨"
      ],
      [
        "ä»",
        "Ĭ"
      ],
      [
        "çī",
        "¹"
      ],
      [
        "è¿Ļ",
        "ç¯ĩæĸĩç«ł"
      ],
      [
        "ãĢĤ",
        "âĢĿ"
      ],
      [
        "å®",
        "¹"
      ],
      [
        "åĲ",
        "Ĺ"
      ],
      [
        "å°",
        "ĳ"
      ],
      [
        "ç§",
        "ĳ"
      ],
      [
        "åĪ",
        "«"
      ],
      [
        "æ²¡",
        "æľī"
      ],
      [
        "è",
        "¢"
      ],
      [
        "å",
        "ķ"
      ],
      [
        "çĽ",
        "®"
      ],
      [
        "è®",
        "©"
      ],
      [
        "ç¨",
        "ĭ"
      ],
      [
        "ä½¿",
        "çĶ¨"
      ],
      [
        "åĬ",
        "©"
      ],
      [
        "å±",
        "ķ"
      ],
      [
        "åģ",
        "¥"
      ],
      [
        "é",
        "Ł"
      ],
      [
        "çĿ",
        "Ģ"
      ],
      [
        "ç»Ļå®ļ",
        "çļĦ"
      ],
      [
        "æ¸",
        "¸"
      ],
      [
        "é",
        "¥"
      ],
      [
        "éĢ",
        "ī"
      ],
      [
        "åŀ",
        "ĭ"
      ],
      [
        "æŃ",
        "¤"
      ],
      [
        "ç",
        "ł"
      ],
      [
        "çŁ",
        "¥"
      ],
      [
        "ä»",
        "£"
      ],
      [
        "å",
        "§"
      ],
      [
        "æĢ",
        "Ŀ"
      ],
      [
        "éĶ",
        "®"
      ],
      [
        "æ",
        "¶"
      ],
      [
        "æĮ",
        "ģ"
      ],
      [
        "ç",
        "Ĺ"
      ],
      [
        "æ",
        "»"
      ],
      [
        "æĢ",
        "»"
      ],
      [
        "æı",
        "ı"
      ],
      [
        "ç³",
        "»"
      ],
      [
        "åħ³",
        "éĶ®"
      ],
      [
        "éĢ",
        "Ĥ"
      ],
      [
        "å¤",
        "ĸ"
      ],
      [
        "è",
        "º"
      ],
      [
        "æ",
        "¼"
      ],
      [
        "åĬ",
        "¡"
      ],
      [
        "åı",
        "Ĭ"
      ],
      [
        "ä¹",
        "Ĳ"
      ],
      [
        "åĳ",
        "Ĭ"
      ],
      [
        "ä¹",
        "¦"
      ],
      [
        "ç¼",
        "ĸ"
      ],
      [
        "è¿",
        "ĳ"
      ],
      [
        "åĮ",
        "»"
      ],
      [
        "æľ",
        "ª"
      ],
      [
        "ä»",
        "»"
      ],
      [
        "ç",
        "¥"
      ],
      [
        "åľ",
        "º"
      ],
      [
        "æ±",
        "Ĥ"
      ],
      [
        "åĵ",
        "ª"
      ],
      [
        "å¢",
        "ĥ"
      ],
      [
        "ç",
        "ģ"
      ],
      [
        "å¤",
        "ª"
      ],
      [
        "ç",
        "¿"
      ],
      [
        "åħ³",
        "äºİ"
      ],
      [
        "åı",
        "¸"
      ],
      [
        "åİ",
        "Ł"
      ],
      [
        "èº",
        "«"
      ],
      [
        "äº",
        "§"
      ],
      [
        "é¢",
        "Ĩ"
      ],
      [
        "æī",
        "ĭ"
      ],
      [
        "ä»¥ä¸ĭ",
        "åı¥åŃĲ"
      ],
      [
        "æ",
        "¨"
      ],
      [
        "å¥",
        "¹"
      ],
      [
        "åįķ",
        "è¯į"
      ],
      [
        "è",
        "Ī"
      ],
      [
        "ä½",
        "į"
      ],
      [
        "æĬĢ",
        "æľ¯"
      ],
      [
        "è®",
        "º"
      ],
      [
        "ä»",
        "¶"
      ],
      [
        "å",
        "£"
      ],
      [
        "åŁ",
        "İ"
      ],
      [
        "çŁ",
        "Ń"
      ],
      [
        "åı¥",
        "è¯Ŀ"
      ],
      [
        "æıı",
        "è¿°"
      ],
      [
        "æĽ´",
        "åĬł"
      ],
      [
        "åĮħ",
        "æĭ¬"
      ],
      [
        "åĽł",
        "ä¸º"
      ],
      [
        "åºĶ",
        "çĶ¨"
      ],
      [
        "é",
        "©"
      ],
      [
        "ä½¿",
        "åħ¶"
      ],
      [
        "åı",
        "ª"
      ],
      [
        "é",
        "»"
      ],
      [
        "é",
        "ħ"
      ],
      [
        "å",
        "Ļ"
      ],
      [
        "å±",
        "±"
      ],
      [
        "æµ",
        "ģ"
      ],
      [
        "åĪ",
        "¶"
      ],
      [
        "å»º",
        "è®®"
      ],
      [
        "å¦Ĥ",
        "æŀľ"
      ],
      [
        "é",
        "¤"
      ],
      [
        "è¯",
        "ķ"
      ],
      [
        "æ¯",
        "ı"
      ],
      [
        "ï¼",
        "ģ"
      ],
      [
        "è",
        "İ"
      ],
      [
        "é¤",
        "Ĳ"
      ],
      [
        "ç®",
        "Ĺ"
      ],
      [
        "ä¸",
        "ĸ"
      ],
      [
        "åı",
        "Ĺ"
      ],
      [
        "ä»ĸ",
        "ä»¬"
      ],
      [
        "æĸ",
        "Ń"
      ],
      [
        "åĻ",
        "¨"
      ],
      [
        "æĺ",
        "Ł"
      ],
      [
        "æĻ",
        "¯"
      ],
      [
        "ç",
        "Į"
      ],
      [
        "åº",
        "·"
      ],
      [
        "è¢",
        "«"
      ],
      [
        "åĪ",
        "Ľ"
      ],
      [
        "åħ¬",
        "åı¸"
      ],
      [
        "èĬ",
        "Ĥ"
      ],
      [
        "åĲ",
        "«"
      ],
      [
        "æī",
        "¾"
      ],
      [
        "åĪ",
        "Ĺ"
      ],
      [
        "æł",
        "¼"
      ],
      [
        "çĪ",
        "±"
      ],
      [
        "åı",
        "¤"
      ],
      [
        "èĬ",
        "±"
      ],
      [
        "åŁ",
        "Ł"
      ],
      [
        "èĲ",
        "½"
      ],
      [
        "äº",
        "¤"
      ],
      [
        "æ¸",
        "ħ"
      ],
      [
        "æ",
        "º"
      ],
      [
        "æĶ",
        "¾"
      ],
      [
        "æłĩ",
        "é¢ĺ"
      ],
      [
        "é¢",
        "Ħ"
      ],
      [
        "è§",
        "Ĥ"
      ],
      [
        "è¾",
        "¾"
      ],
      [
        "ä¸Ń",
        "æıĲåıĸ"
      ],
      [
        "åĪ",
        "©"
      ],
      [
        "éŁ",
        "³"
      ],
      [
        "æŃ",
        "¥"
      ],
      [
        "ç©",
        "º"
      ],
      [
        "é¦",
        "ĸ"
      ],
      [
        "å·",
        "²"
      ],
      [
        "æľ",
        "Ł"
      ],
      [
        "åģ¥",
        "åº·"
      ],
      [
        "æĮ",
        "ĩ"
      ],
      [
        "ä¸»",
        "è¦ģ"
      ],
      [
        "å°",
        "±"
      ],
      [
        "å°",
        "½"
      ],
      [
        "è",
        "ı"
      ],
      [
        "åĩ",
        "ı"
      ],
      [
        "è½",
        "¦"
      ],
      [
        "æŃ",
        "Į"
      ],
      [
        "è¯Ń",
        "è¨Ģ"
      ],
      [
        "æ¨",
        "¡"
      ],
      [
        "åģ",
        "ļ"
      ],
      [
        "åı¯",
        "èĥ½"
      ],
      [
        "çĶ",
        "±"
      ],
      [
        "è¯",
        "Ĩ"
      ],
      [
        "åĲ",
        "ĥ"
      ],
      [
        "åĨ",
        "³"
      ],
      [
        "ä¸Ģ",
        "ä¸ĭ"
      ],
      [
        "æĹ",
        "ħ"
      ],
      [
        "å¹",
        "³"
      ],
      [
        "æĬ",
        "¥"
      ],
      [
        "æĹ¶",
        "éĹ´"
      ],
      [
        "æľ",
        "Ī"
      ],
      [
        "ä»Ĭ",
        "å¤©"
      ],
      [
        "è¾",
        "ĵ"
      ],
      [
        "æŀ",
        "ģ"
      ],
      [
        "è¯",
        "¯"
      ],
      [
        "è",
        "ĥ"
      ],
      [
        "æĳ",
        "ĺ"
      ],
      [
        "ä¸»",
        "é¢ĺ"
      ],
      [
        "çİ¯",
        "å¢ĥ"
      ],
      [
        "é",
        "¸"
      ],
      [
        "å½",
        "¢"
      ],
      [
        "é¢Ĩ",
        "åŁŁ"
      ],
      [
        "è",
        "Ħ"
      ],
      [
        "å·",
        "±"
      ],
      [
        "éĩį",
        "è¦ģ"
      ],
      [
        "åĵ",
        "į"
      ],
      [
        "åĽŀ",
        "çŃĶ"
      ],
      [
        "é",
        "ª"
      ],
      [
        "çĸ",
        "Ĺ"
      ],
      [
        "çļĦ",
        "åı¥åŃĲ"
      ],
      [
        "åıĳ",
        "å±ķ"
      ],
      [
        "å¸®",
        "åĬ©"
      ],
      [
        "ç»Ļ",
        "æĪĳ"
      ],
      [
        "ä¸¤",
        "ä¸ª"
      ],
      [
        "æ¸",
        "©"
      ],
      [
        "é¡",
        "¹"
      ],
      [
        "çķ",
        "Į"
      ],
      [
        "Â",
        "·"
      ],
      [
        "èĩª",
        "å·±"
      ],
      [
        "æ·",
        "±"
      ],
      [
        "åħ",
        "ī"
      ],
      [
        "æł",
        "·"
      ],
      [
        "ç®",
        "¡"
      ],
      [
        "ç»",
        "Ħ"
      ],
      [
        "éĺ",
        "³"
      ],
      [
        "é",
        "Ĵ"
      ],
      [
        "ä¾",
        "ĭ"
      ],
      [
        "ä¸ĭ",
        "éĿ¢"
      ],
      [
        "ç»",
        "Ń"
      ],
      [
        "æ",
        "ļ"
      ],
      [
        "ç",
        "¦"
      ],
      [
        "è",
        "±"
      ],
      [
        "çŃĶ",
        "æ¡Ī"
      ],
      [
        "ç»Ļ",
        "åĩº"
      ],
      [
        "éĶĻ",
        "è¯¯"
      ],
      [
        "è¯",
        "ī"
      ],
      [
        "äºº",
        "ç±»"
      ],
      [
        "ï¼Ł",
        "<|"
      ],
      [
        "åİ",
        "Ĩ"
      ],
      [
        "å·¥",
        "ä½ľ"
      ],
      [
        "çº",
        "¢"
      ],
      [
        "æķ°",
        "æį®"
      ],
      [
        "è¯",
        "»"
      ],
      [
        "æĺ¯",
        "ä»Ģä¹Ī"
      ],
      [
        "æľ",
        "į"
      ],
      [
        "åı",
        "£"
      ],
      [
        "çĶŁæĪĲ",
        "ä¸Ģä¸ª"
      ],
      [
        "çİ¯",
        "ä¿Ŀ"
      ],
      [
        "å®",
        "ī"
      ],
      [
        "çĭ",
        "Ĺ"
      ],
      [
        "è´",
        "¨"
      ],
      [
        "æ",
        "£"
      ],
      [
        "ç",
        "Ĭ"
      ],
      [
        "æ´",
        "ģ"
      ],
      [
        "å¦Ĥ",
        "ä½ķ"
      ],
      [
        "å½±",
        "åĵį"
      ],
      [
        "èĩª",
        "çĦ¶"
      ],
      [
        "è®",
        "¾"
      ],
      [
        "è¿",
        "Ĳ"
      ],
      [
        "æĬ",
        "¤"
      ],
      [
        "åĮ",
        "Ĺ"
      ],
      [
        "åĳĬ",
        "è¯ī"
      ],
      [
        "å¿",
        "«"
      ],
      [
        "åĩ",
        "ł"
      ],
      [
        "çº",
        "¦"
      ],
      [
        "å®",
        "Į"
      ],
      [
        "æ¬",
        "¡"
      ],
      [
        "æĳĺ",
        "è¦ģ"
      ],
      [
        "äºĨ",
        "ä¸Ģ"
      ],
      [
        "æŁ",
        "¥"
      ],
      [
        "åĳ",
        "ĺ"
      ],
      [
        "æīĢ",
        "æľī"
      ],
      [
        "åŁİ",
        "å¸Ĥ"
      ],
      [
        "ç",
        "²"
      ],
      [
        "ç»",
        "Ł"
      ],
      [
        "è",
        "¥"
      ],
      [
        "ï¼ļ",
        "âĢľ"
      ],
      [
        "ç¬",
        "¬"
      ],
      [
        "åĨħ",
        "å®¹"
      ],
      [
        "éĩ",
        "ĳ"
      ],
      [
        "çĹ",
        "ħ"
      ],
      [
        "ä¹",
        "°"
      ],
      [
        "ç¤",
        "¾"
      ],
      [
        "æº",
        "Ĳ"
      ],
      [
        "æľª",
        "æĿ¥"
      ],
      [
        "ãĢĤ",
        "\\"
      ],
      [
        "éĹ",
        "»"
      ],
      [
        "çĶŁ",
        "æ´»"
      ],
      [
        "ä¸Ń",
        "åĽ½"
      ],
      [
        "æĺ¯",
        "ä¸Ģä¸ª"
      ],
      [
        "æĺ",
        "ĵ"
      ],
      [
        "å®ĥ",
        "ä»¬"
      ],
      [
        "è¿Ļ",
        "äºĽ"
      ],
      [
        "è¥",
        "¿"
      ],
      [
        "åı",
        "ĭ"
      ],
      [
        "æķ",
        "Ī"
      ],
      [
        "æĹł",
        "æ³ķ"
      ],
      [
        "å¼",
        "º"
      ],
      [
        "é",
        "ĵ"
      ],
      [
        "å¸",
        "¦"
      ],
      [
        "è¯",
        "Ħ"
      ],
      [
        "æĻ",
        "ļ"
      ],
      [
        "åĲ",
        "¦"
      ],
      [
        "å§",
        "ĭ"
      ],
      [
        "å¤",
        "Ł"
      ],
      [
        "è°",
        "¢"
      ],
      [
        "èį",
        "Ĳ"
      ],
      [
        "ç½",
        "ĳ"
      ],
      [
        "ä¸ĸ",
        "çķĮ"
      ],
      [
        "åĽ",
        "Ń"
      ],
      [
        "èı",
        "ľ"
      ],
      [
        "åĮ",
        "º"
      ],
      [
        "éĢļ",
        "è¿ĩ"
      ],
      [
        "çİ°",
        "åľ¨"
      ],
      [
        "æİ¨",
        "èįĲ"
      ],
      [
        "è¶",
        "£"
      ],
      [
        "æĪ",
        "·"
      ],
      [
        "éĩį",
        "åĨĻ"
      ],
      [
        "åı",
        "²"
      ],
      [
        "æ",
        "¢"
      ],
      [
        "æ³",
        "¨"
      ],
      [
        "æķ",
        "ħ"
      ],
      [
        "è§",
        "ī"
      ],
      [
        "æĭ",
        "©"
      ],
      [
        "æĸ¹",
        "æ³ķ"
      ],
      [
        "åı",
        "·"
      ],
      [
        "åĲ",
        "ĳ"
      ],
      [
        "åŃ",
        "ĺ"
      ],
      [
        "ä¸į",
        "åĲĮ"
      ],
      [
        "éĢī",
        "æĭ©"
      ],
      [
        "èĢ",
        "ĥ"
      ],
      [
        "å¯",
        "¼"
      ],
      [
        "åĳ",
        "¨"
      ],
      [
        "çł",
        "Ķ"
      ],
      [
        "æľº",
        "åĻ¨"
      ],
      [
        "æľĢ",
        "è¿ĳ"
      ],
      [
        "æĸ",
        "Ļ"
      ],
      [
        "åĳ",
        "³"
      ],
      [
        "æĪĳ",
        "çļĦ"
      ],
      [
        "ç®Ģ",
        "æ´ģ"
      ],
      [
        "ç¿",
        "»"
      ],
      [
        "åĳĬè¯ī",
        "æĪĳ"
      ],
      [
        "åĢ",
        "Ļ"
      ],
      [
        "å®ŀ",
        "ä½ĵ"
      ],
      [
        "åĩ",
        "Ĩ"
      ],
      [
        "ä¼",
        "ł"
      ],
      [
        "å",
        "²"
      ],
      [
        "è¾",
        "ĳ"
      ],
      [
        "äº",
        "¬"
      ],
      [
        "åį",
        "ģ"
      ],
      [
        "ç¤",
        "º"
      ],
      [
        "çĻ",
        "½"
      ],
      [
        "å",
        "Ķ"
      ],
      [
        "ä»",
        "·"
      ],
      [
        "éĽ",
        "¨"
      ],
      [
        "åĪĨ",
        "ç±»"
      ],
      [
        "æıĲ",
        "é«ĺ"
      ],
      [
        "åĪ°",
        "äºĨ"
      ],
      [
        "è",
        "Į"
      ],
      [
        "æį",
        "¢"
      ],
      [
        "å°ı",
        "æĺİ"
      ],
      [
        "æİ",
        "Ĵ"
      ],
      [
        "äº",
        "Į"
      ],
      [
        "åħ",
        "ĭ"
      ],
      [
        "ä¸",
        "Ķ"
      ],
      [
        "åħ",
        "±"
      ],
      [
        "è®",
        "¤"
      ],
      [
        "ç«",
        "ĭ"
      ],
      [
        "äº",
        "Ķ"
      ],
      [
        "åºĶ",
        "è¯¥"
      ],
      [
        "çľ",
        "Ł"
      ],
      [
        "éĢ",
        "ł"
      ],
      [
        "æĪ",
        "ĺ"
      ],
      [
        "æĸ°",
        "çļĦ"
      ],
      [
        "æĥħ",
        "æĦŁ"
      ],
      [
        "å¹",
        "¿"
      ],
      [
        "æĸ¹",
        "å¼ı"
      ],
      [
        "è§",
        "ģ"
      ],
      [
        "åĲ",
        "¬"
      ],
      [
        "åħ³éĶ®",
        "è¯į"
      ],
      [
        "éĹ",
        "¨"
      ],
      [
        "ä¸Ģ",
        "æ®µ"
      ],
      [
        "ç",
        "ħ"
      ],
      [
        "åĲ",
        "Ħ"
      ],
      [
        "åķ",
        "Ĩ"
      ],
      [
        "å¤",
        "´"
      ],
      [
        "å¤",
        "į"
      ],
      [
        "è",
        "£"
      ],
      [
        "çĽ¸",
        "åħ³"
      ],
      [
        "è¯",
        "ĳ"
      ],
      [
        "ãĢĤ",
        "\""
      ],
      [
        "èģ",
        "Ķ"
      ],
      [
        "åħ·",
        "ä½ĵ"
      ],
      [
        "æĸ°",
        "éĹ»"
      ],
      [
        "ç©",
        "¶"
      ],
      [
        "ï¼",
        "Ľ"
      ],
      [
        "ä»¥",
        "åıĬ"
      ],
      [
        "é¥",
        "®"
      ],
      [
        "æĬ",
        "Ĭ"
      ],
      [
        "è½",
        "»"
      ],
      [
        "æ¼",
        "Ķ"
      ],
      [
        "æĸ",
        "¯"
      ],
      [
        "åĩı",
        "å°ĳ"
      ],
      [
        "åħ¶",
        "ä»ĸ"
      ],
      [
        "å¼",
        "ķ"
      ],
      [
        "ç¿»",
        "è¯ĳ"
      ],
      [
        "åĬ",
        "Ł"
      ],
      [
        "ç§",
        "°"
      ],
      [
        "ä½ł",
        "çļĦ"
      ],
      [
        "æķ",
        "Ļ"
      ],
      [
        "æĸ¹",
        "éĿ¢"
      ],
      [
        "çĥ",
        "Ń"
      ],
      [
        "è§",
        "Ĩ"
      ],
      [
        "ä¿Ŀ",
        "æĬ¤"
      ],
      [
        "æľ",
        "Ľ"
      ],
      [
        "ç",
        "ı"
      ],
      [
        "æĪĳ",
        "æĥ³"
      ],
      [
        "å¾Ī",
        "å¤ļ"
      ],
      [
        "ä¿",
        "®"
      ],
      [
        "æĪĸ",
        "èĢħ"
      ],
      [
        "å®",
        "¢"
      ],
      [
        "éļ",
        "¾"
      ],
      [
        "è¦ģ",
        "æ±Ĥ"
      ],
      [
        "æ",
        "¦Ĥ"
      ],
      [
        "è",
        "ĳ"
      ],
      [
        "åĮ»",
        "çĸĹ"
      ],
      [
        "åº",
        "ı"
      ],
      [
        "è®",
        "¸"
      ],
      [
        "è·",
        "¯"
      ],
      [
        "æĶ",
        "¿"
      ],
      [
        "æİ",
        "¥"
      ],
      [
        "åĨ",
        "į"
      ],
      [
        "è¶",
        "³"
      ],
      [
        "çĮ",
        "«"
      ],
      [
        "ä¼",
        "ĺ"
      ],
      [
        "å",
        "ĥ"
      ],
      [
        "ç§",
        "ĭ"
      ],
      [
        "ä»",
        "½"
      ],
      [
        "è®¡",
        "ç®Ĺ"
      ],
      [
        "æĢ",
        "ģ"
      ],
      [
        "åĬ¨",
        "çī©"
      ],
      [
        "åħ",
        "´"
      ],
      [
        "¹",
        "æŀľ"
      ],
      [
        "æµ",
        "ĭ"
      ],
      [
        "å¤",
        "ı"
      ],
      [
        "èĭ",
        "±"
      ],
      [
        "ä½Ĩ",
        "æĺ¯"
      ],
      [
        "çłĶ",
        "ç©¶"
      ],
      [
        "èĭ",
        "¹æŀľ"
      ],
      [
        "ç¼ĸ",
        "è¾ĳ"
      ],
      [
        "æĹ",
        "©"
      ],
      [
        "å·²",
        "ç»ı"
      ],
      [
        "æĢ»",
        "ç»ĵ"
      ],
      [
        "åı",
        "Ĥ"
      ],
      [
        "èĥ½",
        "å¤Ł"
      ],
      [
        "å¢",
        "ŀ"
      ],
      [
        "å",
        "¡"
      ],
      [
        "æ»",
        "¡"
      ],
      [
        "æĦı",
        "æĢĿ"
      ],
      [
        "æī",
        "ĵ"
      ],
      [
        "åŁ",
        "º"
      ],
      [
        "é©",
        "¬"
      ],
      [
        "æ´»",
        "åĬ¨"
      ],
      [
        "æİ",
        "¢"
      ],
      [
        "èİ",
        "·"
      ],
      [
        "æŀ",
        "Ĳ"
      ],
      [
        "æī",
        "į"
      ],
      [
        "çī",
        "ĩ"
      ],
      [
        "è¯Ń",
        "æ³ķ"
      ],
      [
        "æ¶",
        "Ī"
      ],
      [
        "åħ¨",
        "çĲĥ"
      ],
      [
        "åį",
        "Ĺ"
      ],
      [
        "äºº",
        "ä»¬"
      ],
      [
        "åĨ",
        "µ"
      ],
      [
        "çļĦ",
        "å¤©æ°Ķ"
      ],
      [
        "è¶",
        "Ĭ"
      ],
      [
        "å¤",
        "ĩ"
      ],
      [
        "æ¨¡",
        "åŀĭ"
      ],
      [
        "èĢ",
        "ģ"
      ],
      [
        "ä¸",
        "ľ"
      ],
      [
        "èĻ",
        "ĳ"
      ],
      [
        "è°",
        "ĥ"
      ],
      [
        "åı",
        "į"
      ],
      [
        "å°",
        "Ŀ"
      ],
      [
        "éŁ³",
        "ä¹Ĳ"
      ],
      [
        "åħ",
        "ĥ"
      ],
      [
        "æĸ",
        "½"
      ],
      [
        "ç§",
        "¯"
      ],
      [
        "èµ",
        "Ľ"
      ],
      [
        "è½",
        "¬"
      ],
      [
        "è¾ĵ",
        "åħ¥"
      ],
      [
        "åĪ",
        "Ĵ"
      ],
      [
        "æ",
        "Ĳ"
      ],
      [
        "èĩ",
        "´"
      ],
      [
        "åĪĨ",
        "æŀĲ"
      ],
      [
        "ç»",
        "Ĩ"
      ],
      [
        "æĿ",
        "¡"
      ],
      [
        "ç´",
        "¢"
      ],
      [
        "çŁ¥",
        "éģĵ"
      ],
      [
        "èµ",
        "Ħ"
      ],
      [
        "æł¹æį®",
        "ç»Ļå®ļçļĦ"
      ],
      [
        "å¼",
        "ł"
      ],
      [
        "çļĦ",
        "ä¿¡æģ¯"
      ],
      [
        "æĺ",
        "¥"
      ],
      [
        "è±",
        "¡"
      ],
      [
        "åĳ",
        "¢"
      ],
      [
        "ä»",
        "ĭ"
      ],
      [
        "ä¾",
        "¿"
      ],
      [
        "å½ĵ",
        "çĦ¶"
      ],
      [
        "å¥",
        "³"
      ],
      [
        "æ®µ",
        "èĲ½"
      ],
      [
        "è®",
        "°"
      ],
      [
        "äº§",
        "åĵģ"
      ],
      [
        "åĥ",
        "ı"
      ],
      [
        "ç¥",
        "ŀ"
      ],
      [
        "ä½¿åħ¶",
        "æĽ´åĬł"
      ],
      [
        "æĺ",
        "¨"
      ],
      [
        "çļĦ",
        "äºº"
      ],
      [
        "åĳ",
        "½"
      ],
      [
        "åĽ",
        "Ľ"
      ],
      [
        "æľ",
        "ĭ"
      ],
      [
        "åį",
        "İ"
      ],
      [
        "ç§ĳ",
        "æĬĢ"
      ],
      [
        "æĽ´",
        "å¤ļ"
      ],
      [
        "åİ",
        "ħ"
      ],
      [
        "åĽ",
        "¾"
      ],
      [
        "0",
        "0"
      ],
      [
        "çļĦ",
        "éĹ®é¢ĺ"
      ],
      [
        "çİ",
        "ĭ"
      ],
      [
        "ç´",
        "ł"
      ],
      [
        "åĮĹ",
        "äº¬"
      ],
      [
        "æĸĩç«ł",
        "ä¸ŃæıĲåıĸ"
      ],
      [
        "è´",
        "Ń"
      ],
      [
        "å",
        "¦"
      ],
      [
        "æĶ",
        "¯"
      ],
      [
        "éĤ£",
        "ä¹Ī"
      ],
      [
        "ï¼",
        "ī"
      ],
      [
        "è¿Ĳ",
        "åĬ¨"
      ],
      [
        "æ²",
        "»"
      ],
      [
        "æĺ¯",
        "åĲ¦"
      ],
      [
        "åİĨ",
        "åı²"
      ],
      [
        "é¦",
        "Ļ"
      ],
      [
        "æĪĲ",
        "è¯Ń"
      ],
      [
        "æŁ",
        "ĵ"
      ],
      [
        "ä¾ĭ",
        "å¦Ĥ"
      ],
      [
        "äº",
        "ĳ"
      ],
      [
        "åĲĮ",
        "æĹ¶"
      ],
      [
        "ä¸",
        "½"
      ],
      [
        "æľĭ",
        "åıĭ"
      ],
      [
        "å¤Ħ",
        "çĲĨ"
      ],
      [
        "è¯·",
        "éĹ®"
      ],
      [
        "ä¸ª",
        "äºº"
      ],
      [
        "èĩªå·±",
        "çļĦ"
      ],
      [
        "çİ",
        "ĩ"
      ],
      [
        "ä¿Ŀ",
        "æĮģ"
      ],
      [
        "è®",
        "²"
      ],
      [
        "è¶",
        "ħ"
      ],
      [
        "ä»¥ä¸ĭ",
        "æĸĩæľ¬"
      ],
      [
        "ä½",
        "İ"
      ],
      [
        "æŃ£",
        "åľ¨"
      ],
      [
        "çĭ",
        "¬"
      ],
      [
        "æĶ",
        "¶"
      ],
      [
        "ãĢĤâĢĿ",
        "<|"
      ],
      [
        "åı¤",
        "è¯Ĺ"
      ],
      [
        "ä»»",
        "åĬ¡"
      ],
      [
        "è¡¨",
        "è¾¾"
      ],
      [
        "æ",
        "ħ"
      ],
      [
        "çĽ",
        "´"
      ],
      [
        "ç¾İ",
        "åĽ½"
      ],
      [
        "æķ",
        "´"
      ],
      [
        "Ċ",
        "Ċ"
      ],
      [
        "æĿ",
        "¾"
      ],
      [
        "éļ",
        "ı"
      ],
      [
        "è®",
        "¨"
      ],
      [
        "å",
        "ĭ"
      ],
      [
        "åŃ",
        "£"
      ],
      [
        "ä¸Ģ",
        "åı¥è¯Ŀ"
      ],
      [
        "è®¸",
        "å¤ļ"
      ],
      [
        "æĸĩç«ł",
        "ä¸Ń"
      ],
      [
        "æķħ",
        "äºĭ"
      ],
      [
        "åĪ",
        "¤"
      ],
      [
        "éĺ",
        "Ł"
      ],
      [
        "ç",
        "¢"
      ],
      [
        "å¸",
        "ĥ"
      ],
      [
        "çħ",
        "§"
      ],
      [
        "ä¹ĭ",
        "ä¸Ģ"
      ],
      [
        "èĩ",
        "³"
      ],
      [
        "è¿Ļ",
        "åı¥è¯Ŀ"
      ],
      [
        "å¤",
        "±"
      ],
      [
        "ç»",
        "į"
      ],
      [
        "æĽ",
        "¿"
      ],
      [
        "æĪĳ",
        "åı¯ä»¥"
      ],
      [
        "æĪĳä»¬",
        "çļĦ"
      ],
      [
        "éĻ",
        "©"
      ],
      [
        "åŃĺ",
        "åľ¨"
      ],
      [
        "æĹħ",
        "æ¸¸"
      ],
      [
        "åħ¶",
        "ä¸Ń"
      ],
      [
        "å°ı",
        "è¯´"
      ],
      [
        "ä»ĸ",
        "çļĦ"
      ],
      [
        "éª",
        "Į"
      ],
      [
        "ï¼",
        "Ī"
      ],
      [
        "å¤",
        "ľ"
      ],
      [
        "ä¹ī",
        "è¯į"
      ],
      [
        "çļĦ",
        "æĸĩæľ¬"
      ],
      [
        "çĬ",
        "¶"
      ],
      [
        "é¤Ĳ",
        "åİħ"
      ],
      [
        "ç²",
        "¾"
      ],
      [
        "è§",
        "Ħ"
      ],
      [
        "å°",
        "Ķ"
      ],
      [
        "å£",
        "°"
      ],
      [
        "æĦŁ",
        "åĪ°"
      ],
      [
        "ä»ĭ",
        "ç»į"
      ],
      [
        "çº",
        "¿"
      ],
      [
        "éĢ",
        "Ł"
      ],
      [
        "ä¸Ģ",
        "ç¯ĩ"
      ],
      [
        "é",
        "²"
      ],
      [
        "åĲ",
        "¸"
      ],
      [
        "å°Ŀ",
        "è¯ķ"
      ],
      [
        "ä¸",
        "ĩ"
      ],
      [
        "åħ",
        "Ī"
      ],
      [
        "å°½",
        "ç®¡"
      ],
      [
        "è¾",
        "¹"
      ],
      [
        "æīĢ",
        "ä»¥"
      ],
      [
        "éĩį",
        "æĸ°"
      ],
      [
        "è¯Ĩ",
        "åĪ«"
      ],
      [
        "åıĺ",
        "åĮĸ"
      ],
      [
        "å¤§",
        "çļĦ"
      ],
      [
        "è",
        "Ľ"
      ],
      [
        "æĢ",
        "İ"
      ],
      [
        "ä¸º",
        "æĤ¨"
      ],
      [
        "ç¬",
        "¦"
      ],
      [
        "æŀ",
        "Ĺ"
      ],
      [
        "ç§ĳ",
        "åŃ¦"
      ],
      [
        "A",
        "I"
      ],
      [
        "é£",
        "ŀ"
      ],
      [
        "ä¼",
        "¼"
      ],
      [
        "æŀ",
        "Ħ"
      ],
      [
        "çĶ±",
        "äºİ"
      ],
      [
        "åıĳ",
        "çİ°"
      ],
      [
        "çŃī",
        "çŃī"
      ],
      [
        "åĪ",
        "Ļ"
      ],
      [
        "å",
        "¨"
      ],
      [
        "æ°",
        "ĳ"
      ],
      [
        "æĶ¹",
        "åĨĻ"
      ],
      [
        "èº«",
        "ä½ĵ"
      ],
      [
        "æľį",
        "åĬ¡"
      ],
      [
        "åĵª",
        "äºĽ"
      ],
      [
        "è¾",
        "ĥ"
      ],
      [
        "åĮħ",
        "åĲ«"
      ],
      [
        "æľī",
        "åħ³"
      ],
      [
        "çĲĨ",
        "è§£"
      ],
      [
        "æĤ¨",
        "åı¯ä»¥"
      ],
      [
        "2",
        "0"
      ],
      [
        "åĽł",
        "æŃ¤"
      ],
      [
        "å¿",
        "ħ"
      ],
      [
        "éĩ",
        "ĩ"
      ],
      [
        "æĤ¨",
        "çļĦ"
      ],
      [
        "å·",
        "´"
      ],
      [
        "çģ",
        "«"
      ],
      [
        "æİ",
        "ª"
      ],
      [
        "é»",
        "Ħ"
      ],
      [
        "åħ¬",
        "åĽŃ"
      ],
      [
        "æľī",
        "è¶£"
      ],
      [
        "æ±",
        "¡"
      ],
      [
        "èį",
        "ī"
      ],
      [
        "æĺİ",
        "å¤©"
      ],
      [
        "æĭ",
        "ī"
      ],
      [
        "è§£",
        "åĨ³"
      ],
      [
        "æĸĩ",
        "åĮĸ"
      ],
      [
        "åĢ",
        "¼"
      ],
      [
        "æķ",
        "£"
      ],
      [
        "éĩ",
        "Ĭ"
      ],
      [
        "è¿",
        "ľ"
      ],
      [
        "èģ",
        "Ĭ"
      ],
      [
        "æĿ",
        "İ"
      ],
      [
        "èĤ",
        "²"
      ],
      [
        "å",
        "³"
      ],
      [
        "å¸®",
        "æĪĳ"
      ],
      [
        "ç³",
        "ĸ"
      ],
      [
        "ç¦",
        "»"
      ],
      [
        "ç»",
        "ĥ"
      ],
      [
        "åº",
        "Ĺ"
      ],
      [
        "ç",
        "ª"
      ],
      [
        "çļĦ",
        "çĶµå½±"
      ],
      [
        "å",
        "ł"
      ],
      [
        "æĪĳ",
        "åĸľæ¬¢"
      ],
      [
        "åħ·",
        "æľī"
      ],
      [
        "å",
        "Ħ"
      ],
      [
        "è®¤",
        "ä¸º"
      ],
      [
        "åĲį",
        "ç§°"
      ],
      [
        "è®¡",
        "åĪĴ"
      ],
      [
        "æĺ¯ä¸Ģ",
        "ç§į"
      ],
      [
        "çļĦ",
        "ä¸»è¦ģ"
      ],
      [
        "å®Į",
        "æĪĲ"
      ],
      [
        "çº",
        "ł"
      ],
      [
        "èĻ",
        "½"
      ],
      [
        "è¿ĺ",
        "æĺ¯"
      ],
      [
        "åĪ¤",
        "æĸŃ"
      ],
      [
        "ä¸Ģ",
        "é¦ĸ"
      ],
      [
        "æ±¡",
        "æŁĵ"
      ],
      [
        "èī²",
        "çļĦ"
      ],
      [
        "å£",
        "«"
      ],
      [
        "æĥħ",
        "åĨµ"
      ],
      [
        "æĺ¨",
        "å¤©"
      ],
      [
        "æł",
        "ĳ"
      ],
      [
        "æļ",
        "ĸ"
      ],
      [
        "ç",
        "ĳ"
      ],
      [
        "åį",
        "³"
      ],
      [
        "æī¾",
        "åĪ°"
      ],
      [
        "æĬ",
        "±"
      ],
      [
        "ç¿»è¯ĳ",
        "æĪĲ"
      ],
      [
        "æĪ",
        "¿"
      ],
      [
        "äº",
        "«"
      ],
      [
        "æŃ£",
        "ç¡®"
      ],
      [
        "è§Ĥ",
        "çĤ¹"
      ],
      [
        "éĢĤ",
        "åĲĪ"
      ],
      [
        "åĴ",
        "ĸ"
      ],
      [
        "é¥®",
        "é£Ł"
      ],
      [
        "æ",
        "¤"
      ],
      [
        "æİª",
        "æĸ½"
      ],
      [
        "ä½ł",
        "åı¯ä»¥"
      ],
      [
        "æľºåĻ¨",
        "åŃ¦ä¹ł"
      ],
      [
        "èµ",
        "°"
      ],
      [
        "ä»İ",
        "æĸĩç«łä¸ŃæıĲåıĸ"
      ],
      [
        "éĻ",
        "į"
      ],
      [
        "ç¤¾",
        "ä¼ļ"
      ],
      [
        "åı",
        "¶"
      ],
      [
        "æ",
        "¹"
      ],
      [
        "ä»",
        "¤"
      ],
      [
        "ä½ľ",
        "ä¸º"
      ],
      [
        "åľ°",
        "çĲĥ"
      ],
      [
        "å¸",
        "Į"
      ],
      [
        "åİ",
        "ĭ"
      ],
      [
        "ç»Ń",
        "åĨĻ"
      ],
      [
        "çİ",
        "©"
      ],
      [
        "åķ",
        "¡"
      ],
      [
        "é¦",
        "Ĩ"
      ],
      [
        "èĳ",
        "Ĺ"
      ],
      [
        "åĴĸ",
        "åķ¡"
      ],
      [
        "ç§¯",
        "æŀģ"
      ],
      [
        "åĬ",
        "¿"
      ],
      [
        "äº",
        "ļ"
      ],
      [
        "ä¸Ģ",
        "èµ·"
      ],
      [
        "å¤ª",
        "éĺ³"
      ],
      [
        "è¯",
        "¢"
      ],
      [
        "è§",
        "Ĵ"
      ],
      [
        "éħ",
        "Ĵ"
      ],
      [
        "å¼Ģ",
        "å§ĭ"
      ],
      [
        "æ¬",
        "¾"
      ],
      [
        "åı",
        "°"
      ],
      [
        "æĪĲ",
        "ä¸º"
      ],
      [
        "åĸ",
        "Ħ"
      ],
      [
        "æĽ",
        "²"
      ],
      [
        "çŃ",
        "ĸ"
      ],
      [
        "å¸",
        "Ī"
      ],
      [
        "ç½",
        "®"
      ],
      [
        "åĩº",
        "å¤Ħ"
      ],
      [
        "åħ",
        "ħ"
      ],
      [
        "èĤ",
        "ī"
      ],
      [
        "åģ",
        "ĩ"
      ],
      [
        "ç»",
        "¿"
      ],
      [
        "è®¡ç®Ĺ",
        "æľº"
      ],
      [
        "ä¸ī",
        "ä¸ª"
      ],
      [
        "ç±»",
        "åŀĭ"
      ],
      [
        "è¡",
        "£"
      ],
      [
        "åį",
        "ĩ"
      ],
      [
        "ç®Ģ",
        "åįķ"
      ],
      [
        "èĲ",
        "¥"
      ],
      [
        "ç«",
        "Ļ"
      ],
      [
        "ä¸į",
        "èĥ½"
      ],
      [
        "å¯",
        "»"
      ],
      [
        "ä¹ĭ",
        "éĹ´"
      ],
      [
        "æĪĲè¯Ń",
        "åĩºå¤Ħ"
      ],
      [
        "ç³»",
        "ç»Ł"
      ],
      [
        "åĦ",
        "¿"
      ],
      [
        "çļĦ",
        "åºĶçĶ¨"
      ],
      [
        "ä¸",
        "¾"
      ],
      [
        "çĦ¶",
        "åĲİ"
      ],
      [
        "æ°Ķ",
        "åĢĻ"
      ],
      [
        "æ¯Ķ",
        "å¦Ĥ"
      ],
      [
        "è",
        "ĵ"
      ],
      [
        "ä½¿åħ¶",
        "æĽ´"
      ],
      [
        "åı",
        "Ī"
      ],
      [
        "æ¯Ķ",
        "èµĽ"
      ],
      [
        "åİ»",
        "äºĨ"
      ],
      [
        "å¾",
        "·"
      ],
      [
        "é",
        "±"
      ],
      [
        "ç»",
        "ĩ"
      ],
      [
        "åº",
        "ľ"
      ],
      [
        "æĪ",
        "ı"
      ],
      [
        "é±",
        "¼"
      ],
      [
        "æ",
        "¥"
      ],
      [
        "æĹħ",
        "è¡Į"
      ],
      [
        "å¯¼",
        "èĩ´"
      ],
      [
        "è",
        "ķ"
      ],
      [
        "éĻ",
        "¤"
      ],
      [
        "æĽ¿",
        "æį¢"
      ],
      [
        "é£Ł",
        "çī©"
      ],
      [
        "çĶ",
        "»"
      ],
      [
        "æ¦Ĥ",
        "æĭ¬"
      ],
      [
        "æľī",
        "ä»Ģä¹Ī"
      ],
      [
        "æĢİ",
        "ä¹Ī"
      ],
      [
        "äºº",
        "çļĦ"
      ],
      [
        "åħ³",
        "ç³»"
      ],
      [
        "æ²",
        "Ļ"
      ],
      [
        "çĻ",
        "¾"
      ],
      [
        "èĻ½",
        "çĦ¶"
      ],
      [
        "çļĦ",
        "æĸĩç«ł"
      ],
      [
        "æ",
        "Ĵ"
      ],
      [
        "é",
        "¾"
      ],
      [
        "æ¢",
        "¦"
      ],
      [
        "é¸",
        "Ł"
      ],
      [
        "å·",
        "§"
      ],
      [
        "è·",
        "ĳ"
      ],
      [
        "çİ°",
        "ä»£"
      ],
      [
        "ç",
        "Ĩ"
      ],
      [
        "çļĦ",
        "åľ°"
      ],
      [
        "æĸĩ",
        "åŃĹ"
      ],
      [
        "é£İ",
        "æł¼"
      ],
      [
        "ä¸",
        "ĵ"
      ],
      [
        "éħ",
        "į"
      ],
      [
        "é»",
        "ĳ"
      ],
      [
        "äºĨ",
        "è§£"
      ],
      [
        "ç¬",
        "ĳ"
      ],
      [
        "éĽ",
        "Ĩ"
      ],
      [
        "éĺ",
        "²"
      ],
      [
        "æµ",
        "İ"
      ],
      [
        "èĥ½",
        "åĬĽ"
      ],
      [
        "éĶ",
        "Ģ"
      ],
      [
        "è",
        "ħ"
      ],
      [
        "éĺ",
        "ħ"
      ],
      [
        "çļĦ",
        "ä¸Ģ"
      ],
      [
        "æŃ",
        "ī"
      ],
      [
        "ç»",
        "´"
      ],
      [
        "åħ",
        "»"
      ],
      [
        "æŁ",
        "Ĳ"
      ],
      [
        "çļĦ",
        "å½±åĵį"
      ],
      [
        "å¸¦",
        "æĿ¥"
      ],
      [
        "è¯Ĺ",
        "æŃĮ"
      ],
      [
        "æĮ",
        "ī"
      ],
      [
        "åĨ",
        "Ľ"
      ],
      [
        "éĻ",
        "ħ"
      ],
      [
        "çī",
        "Ľ"
      ],
      [
        "æĮ",
        "ĳ"
      ],
      [
        "åħ",
        "į"
      ],
      [
        "å·",
        "ŀ"
      ],
      [
        "ä»İ",
        "è¿Ļç¯ĩæĸĩç«ł"
      ],
      [
        "å®ī",
        "åħ¨"
      ],
      [
        "æĿ",
        "Ĳ"
      ],
      [
        "åī",
        "§"
      ],
      [
        "ç»",
        "Ī"
      ],
      [
        "äºº",
        "åĲį"
      ],
      [
        "æĬ",
        "½"
      ],
      [
        "è¿Ļ",
        "æ®µ"
      ],
      [
        "æĬ±",
        "æŃī"
      ],
      [
        "æĿ",
        "¯"
      ],
      [
        "è´",
        "¹"
      ],
      [
        "éĻ",
        "¢"
      ],
      [
        "èĽ",
        "ĭ"
      ],
      [
        "æĭ",
        "¼"
      ],
      [
        "ç®Ģ",
        "çŁŃ"
      ],
      [
        "ç±",
        "³"
      ],
      [
        "ç©",
        "¿"
      ],
      [
        "æĺİ",
        "äºĨ"
      ],
      [
        "è¿ĺ",
        "æľī"
      ],
      [
        "ç»ĵ",
        "æŀľ"
      ],
      [
        "è¯Ħ",
        "è®º"
      ],
      [
        "å¸Ĥ",
        "åľº"
      ],
      [
        "ä¸¤ä¸ª",
        "åı¥åŃĲ"
      ],
      [
        "äº",
        "Ĵ"
      ],
      [
        "åŃ",
        "©"
      ],
      [
        "ä»",
        "į"
      ],
      [
        "åĩĨ",
        "ç¡®"
      ],
      [
        "ç»Ħ",
        "ç»ĩ"
      ],
      [
        "èģ",
        "Į"
      ],
      [
        "é",
        "Ĩ"
      ],
      [
        "æĪĲ",
        "åĬŁ"
      ],
      [
        "çĶ",
        "·"
      ],
      [
        "æĪĳ",
        "ä¼ļ"
      ],
      [
        "è¾ĵ",
        "åĩº"
      ],
      [
        "çĿ",
        "¡"
      ],
      [
        "å¿",
        "µ"
      ],
      [
        "å¾",
        "Ģ"
      ],
      [
        "å³",
        "°"
      ],
      [
        "å¸Į",
        "æľĽ"
      ],
      [
        "ä»»",
        "ä½ķ"
      ],
      [
        "å¯",
        "Į"
      ],
      [
        "å¾",
        "®"
      ],
      [
        "å±",
        "ŀ"
      ],
      [
        "æ",
        "½"
      ],
      [
        "è¿",
        "ŀ"
      ],
      [
        "è´",
        "Ł"
      ],
      [
        "å°Ĩ",
        "åħ¶"
      ],
      [
        "çĸ",
        "¾"
      ],
      [
        "ç¨ĭ",
        "åºı"
      ],
      [
        "æµ",
        "ª"
      ],
      [
        "èĥ½",
        "æºĲ"
      ],
      [
        "é¢Ħ",
        "æĬ¥"
      ],
      [
        "ä¿®",
        "æĶ¹"
      ],
      [
        "æ²",
        "³"
      ],
      [
        "ä¸įåĲĮ",
        "çļĦ"
      ],
      [
        "æ",
        "¿"
      ],
      [
        "èĦ",
        "ĳ"
      ],
      [
        "æ",
        "©"
      ],
      [
        "æ¯",
        "į"
      ],
      [
        "éĺħ",
        "è¯»"
      ],
      [
        "çĶ¨",
        "æĪ·"
      ],
      [
        "å¦Ĥæŀľ",
        "ä½ł"
      ],
      [
        "éĻ",
        "Ĳ"
      ],
      [
        "åĩł",
        "ä¸ª"
      ],
      [
        "èµ·",
        "æĿ¥"
      ],
      [
        "éĿ",
        "Ļ"
      ],
      [
        "åĲ",
        "§"
      ],
      [
        "ç»ı",
        "æµİ"
      ],
      [
        "å±",
        "ħ"
      ],
      [
        "å®",
        "¤"
      ],
      [
        "æ°´",
        "æŀľ"
      ],
      [
        "åĽ",
        "´"
      ],
      [
        "çŁ",
        "³"
      ],
      [
        "è",
        "ŀ"
      ],
      [
        "æ",
        "ĩ"
      ],
      [
        "æ³¨",
        "æĦı"
      ],
      [
        "éĥ¨",
        "çĶµå½±"
      ],
      [
        "å¯¹",
        "äºİ"
      ],
      [
        "å®ĥ",
        "çļĦ"
      ],
      [
        "å½",
        "Ĵ"
      ],
      [
        "éĿ",
        "Ĵ"
      ],
      [
        "è£",
        "ħ"
      ],
      [
        "äº¤",
        "éĢļ"
      ],
      [
        "å¯",
        "Ĩ"
      ],
      [
        "æ",
        "ĵ"
      ],
      [
        "è¯",
        "Ĭ"
      ],
      [
        "èĢĥ",
        "èĻĳ"
      ],
      [
        "å¾",
        "ĭ"
      ],
      [
        "æľĢ",
        "é«ĺ"
      ],
      [
        "æ¸¸",
        "æĪı"
      ],
      [
        "è¿Ļ",
        "æĺ¯ä¸Ģ"
      ],
      [
        "èĩª",
        "åĬ¨"
      ],
      [
        "è¯·",
        "æıĲä¾Ľ"
      ],
      [
        "æĺ",
        "¾"
      ],
      [
        "éĥ½",
        "æĺ¯"
      ],
      [
        "åĬ",
        "ª"
      ],
      [
        "1",
        "0"
      ],
      [
        "çķ",
        "ħ"
      ],
      [
        "æĶ¿",
        "åºľ"
      ],
      [
        "èī",
        "º"
      ],
      [
        "ç»Ļå®ļ",
        "ä¸Ģä¸ª"
      ],
      [
        "è",
        "Ķ"
      ],
      [
        "æīį",
        "èĥ½"
      ],
      [
        "æĭ",
        "¥"
      ],
      [
        "æĮĳ",
        "æĪĺ"
      ],
      [
        "åĬª",
        "åĬĽ"
      ],
      [
        "å®",
        "³"
      ],
      [
        "èĵ",
        "Ŀ"
      ],
      [
        "éĢī",
        "é¡¹"
      ],
      [
        "ä¸Ģ",
        "ä»½"
      ],
      [
        "åĩº",
        "çİ°"
      ],
      [
        "åĨĻ",
        "ä¸Ģä¸ª"
      ],
      [
        "é",
        "¼"
      ],
      [
        "åĬ",
        "ŀ"
      ],
      [
        "ç¼",
[...]
